, 44571316
the 38179818
. 30429098
的 28563279
of 21891404
and 16896828
0 15489475
1 15352797
。 15204351
to 14234673
2 13199109
in 11162270
和 10407353
國 8462545
a 8316645
會 7965584
- 7604401
) 7485429
( 7447419
在 7394521
9 7137687
一 6883196
3 6185887
有 5872488
人 5791156
5 5590235
for 5540634
4 5154762
是 4908252
、 4896500
6 4801020
/ 4766381
on 4744558
that 4650347
行 4607435
議 4427933
了 4295229
為 4219590
年 4180024
" 4106318
7 4079902
員 4064273
8 3990325
以 3947394
這 3860202
作 3820404
不 3711596
法 3609297
中 3523614
is 3496004
: 3435000
方 3364393
發 3253748
; 3244976
對 3225298
個 3206963
with 3179245
於 3162516
##ly 3140334
合 3120964
第 3099606
關 3093613
我 3020677
要 2999779
by 2997513
定 2990932
' 2955463
他 2952456
as 2927916
家 2893575
其 2888402
提 2838790
be 2691500
大 2689351
們 2602636
用 2564477
地 2557301
出 2529380
進 2526958
到 2497153
所 2481143
事 2477431
動 2433566
政 2403472
工 2376130
理 2368396
能 2364377
可 2352344
聯 2317138
it 2308222
及 2237735
成 2188803
生 2162174
與 2158967
上 2116544
##s 2094041
s 2076395
時 2039202
公 2035799
組 2026083
展 2022607
委 2016063
日 2002446
主 1998187
部 1989246
at 1989029
加 1976759
was 1966187
權 1957314
經 1948561
力 1925248
are 1909116
利 1906627
決 1904746
約 1904545
性 1901601
全 1900925
問 1900879
月 1891422
機 1879417
題 1868564
並 1835842
分 1825533
過 1823689
務 1807124
表 1785950
來 1783437
特 1768397
面 1754616
its 1751970
應 1750228
些 1743235
實 1708491
保 1705676
項 1701685
報 1699846
將 1698577
目 1696577
重 1679018
案 1658963
from 1653359
or 1636196
資 1614928
制 1610401
this 1606889
際 1590639
各 1588355
民 1585993
下 1575116
同 1571710
i 1565481
多 1550291
告 1540524
得 1518580
期 1516202
an 1487933
間 1485684
建 1469901
have 1466293
》 1460009
《 1459991
not 1449696
而 1449403
united 1436896
現 1434958
本 1426802
通 1406183
計 1390858
開 1384860
助 1380127
或 1378096
區 1373777
供 1372699
條 1370677
意 1365388
體 1360507
內 1353408
任 1343100
業 1335532
程 1330064
就 1329913
種 1327291
後 1321845
別 1316666
自 1314765
持 1314392
安 1311297
文 1310071
該 1299040
international 1288550
非 1285056
has 1277793
all 1275715
基 1272468
長 1272127
their 1267009
之 1258476
nations 1229981
此 1225519
當 1222807
外 1219388
立 1217883
which 1215284
使 1210624
因 1208247
你 1205543
女 1205195
書 1202915
平 1202152
you 1199219
如 1196877
情 1194388
織 1190215
最 1186891
處 1183749
者 1177385
規 1170018
件 1169593
general 1162824
管 1162268
代 1143426
社 1135383
數 1127523
新 1126133
學 1118413
說 1113547
化 1107107
構 1105476
will 1104316
development 1102425
支 1102210
調 1100247
據 1100073
前 1094573
斯 1093957
協 1091136
亞 1090750
金 1089846
府 1081768
明 1081755
取 1080220
高 1076147
? 1068880
設 1064349
由 1063183
度 1057348
正 1054080
committee 1054043
施 1052342
還 1050648
活 1050065
次 1047715
受 1042835
也 1029904
確 1021073
況 1013746
包 1012691
also 1004422
信 1000587
had 996009
審 992553
rights 979598
強 979291
團 978075
認 975349
been 974177
he 971129
統 970175
美 961393
向 953134
產 952612
域 935720
已 935437
other 932852
states 931122
共 929842
were 923704
交 920508
續 920090
入 919837
但 914545
果 908887
需 908317
指 896705
論 892820
相 889859
查 888969
標 886608
執 870856
we 869798
結 866343
括 861762
解 859072
求 853856
從 842583
它 842126
十 836513
human 833901
should 826610
更 824837
義 821869
領 820969
濟 820477
著 819831
子 817678
然 814041
拉 812951
必 810985
物 807983
小 805473
被 802666
辦 800273
教 797389
採 791356
預 789292
式 783811
等 781353
比 780495
都 780242
劃 779239
would 778285
請 771617
沒 770348
至 769907
countries 769563
they 765767
婦 760364
his 758771
心 757923
道 755455
爾 750885
under 747785
秘 747632
號 746402
專 745849
兒 744391
report 742661
那 741997
women 735703
un 734175
名 729184
b 725773
national 719308
增 719080
則 714497
but 714200
常 705202
源 704731
先 703504
根 700072
c 699530
兩 694975
起 694157
舉 693417
效 692737
技 688966
術 688943
司 687411
洲 684709
such 684185
系 683976
參 683191
達 680233
護 675491
one 674739
戰 674455
列 672161
council 671361
無 668771
二 667077
點 666263
三 664451
security 663038
new 662162
總 661802
界 660420
境 659221
言 658803
can 657794
量 656019
巴 653849
more 650362
律 649213
改 648950
work 648443
何 644288
樣 643911
information 643023
there 641519
門 640834
state 640007
準 638435
款 637036
位 627893
##ing 624685
治 620111
no 619208
見 617208
商 614166
措 613524
government 612997
運 612845
級 611771
服 610567
少 609995
接 608514
support 607538
費 607229
具 602993
段 602865
收 601630
童 601463
世 599397
好 599173
締 597337
原 594502
她 594433
策 587077
口 586771
including 581687
% 581180
注 580342
西 579127
類 578392
證 576900
反 576897
很 574573
示 573420
做 569894
促 569356
may 565817
克 564022
研 562779
品 560767
維 560260
resolution 557634
into 554288
科 552802
核 552359
給 552344
算 551165
責 549597
影 549474
裡 547470
須 545103
導 543219
up 541620
law 540216
視 538932
people 535935
out 533501
選 533344
去 530613
programme 530397
除 529166
e 528574
知 522075
economic 521078
天 519071
料 517070
if 516943
切 516650
time 515084
未 514927
元 514099
步 513893
變 512163
電 511998
implementation 511814
響 510126
席 509934
例 509787
育 507859
監 507585
these 507305
職 505944
made 502655
土 502609
署 501321
軍 498966
system 498405
適 497826
assembly 496068
環 495051
局 494113
究 491245
評 491048
許 490068
備 489332
阿 488393
球 487915
場 486526
息 485731
武 482833
器 482658
屆 481614
止 479275
social 477593
繼 477584
庭 476417
per 474757
special 474507
so 474419
麼 473786
海 470617
水 469301
session 469152
害 468781
through 468516
看 467775
some 464598
article 462674
those 461187
犯 461106
activities 458546
易 457763
well 457025
between 456602
市 455568
any 455529
d 455508
who 454433
草 451275
secretary 449582
難 449216
承 448719
額 446795
world 446270
馬 445577
每 443635
group 442354
convention 442064
尼 441806
罪 440541
流 438772
格 438315
獲 437040
隊 437028
援 435071
commission 434385
想 432938
討 431813
防 431115
meeting 430676
造 430026
努 429884
集 429307
價 429259
against 428944
且 428427
察 428030
my 426293
識 425933
感 425637
考 425533
減 423835
when 423813
country 423245
two 420994
質 420627
消 418609
about 418408
四 417120
照 415431
單 414860
cooperation 412475
院 411689
致 411297
##d 407399
限 406165
your 403491
particular 402468
五 401349
children 401179
回 401123
派 400675
存 399498
non 399248
first 398872
than 395636
把 394585
病 394507
南 393000
our 392071
述 391884
略 391796
over 390773
parties 390137
conference 390051
訴 389097
傳 388081
空 386463
訂 385493
率 385349
do 385106
use 383702
完 383396
could 383063
投 382258
measures 382197
記 381633
only 381333
##p 379385
財 379053
便 378397
放 378389
訓 378369
甚 377488
直 377390
益 377090
her 376764
只 376412
手 376293
them 376061
mr 375170
觀 373849
public 372791
話 372513
regional 371142
官 369521
high 369426
失 369225
序 368775
she 368204
management 367639
納 366667
轉 365495
$ 364302
financial 364134
歐 363926
t 363905
形 362931
services 362420
said 361962
year 360566
色 360487
shall 359437
resources 358905
number 358875
測 358486
action 358097
即 356001
##a 355937
office 355297
充 354687
during 354459
organizations 353222
估 352732
份 351577
貿 351391
蘭 350968
申 350917
氣 350890
effective 350871
語 350802
羅 348916
level 347865
網 345895
東 345156
efforts 345045
極 344665
夠 342430
paragraph 341847
draft 341812
身 341455
working 341248
族 341163
what 340828
party 340797
按 340402
讓 339968
right 339244
近 338354
係 337890
刑 337124
! 336896
望 336806
process 336556
判 336304
health 334018
裝 333697
need 332908
[ 331996
most 330947
裁 329537
打 329374
編 329049
take 328969
宣 328766
cent 327291
排 327088
德 326857
organization 326804
further 326619
盡 326243
整 325483
order 325020
years 324502
##ness 324341
幾 324070
like 323796
assistance 323543
伊 323394
must 322971
慮 321943
負 321501
今 321475
provide 321161
範 321125
re 320659
士 320362
members 318726
候 316851
member 316810
容 315754
首 314335
issues 313658
many 313189
education 312576
di 312439
爭 312411
險 312010
me 310300
] 309956
推 309441
staff 308856
邊 305853
架 305813
ensure 305568
peace 303363
坦 303350
離 301263
political 300481
republic 300291
盟 300224
突 299923
始 299706
培 299075
附 298992
索 298725
part 297468
臨 296852
legal 296334
室 295778
己 295716
based 295635
review 294986
留 294360
within 294020
嚴 293937
policy 293891
再 293404
global 293364
塞 292996
agenda 292172
修 292120
##r 292094
控 291689
after 291511
##ed 291380
developing 289892
健 289746
make 288983
仍 288948
型 288801
protection 288359
農 287553
足 286589
六 286354
being 283604
##c 282931
##e 282553
談 282511
擊 281564
l 280588
provided 280226
inter 280157
希 279960
否 279619
while 278892
驗 277690
[UNK] 277415
擔 276280
persons 275783
areas 275420
低 274679
警 273853
training 273579
危 273130
decision 272880
營 272814
路 272715
願 272070
依 271588
暴 271237
移 270793
圖 270560
勢 269111
china 268985
帶 268670
* 267565
清 267350
p 266508
important 266447
related 265945
衛 265898
programmes 265339
礎 264928
where 264680
模 263727
budget 263627
威 263259
period 262841
see 261511
廣 261283
補 260980
圍 260821
m 260695
值 260201
顯 260174
真 259768
英 259575
付 258569
community 258488
before 257897
relevant 257706
普 257561
詢 257236
車 257083
稱 256880
勒 256525
both 255525
優 254797
諮 254666
住 254231
how 253501
歡 252651
另 252248
獨 251166
待 250744
however 250557
狀 250115
萬 249951
president 249538
命 248451
衝 248392
now 248193
象 247965
since 247550
following 246925
trade 246908
節 246441
里 245291
令 245176
太 245061
held 244632
佈 244612
哥 243682
引 243514
布 243256
current 242698
毒 242228
sub 242175
伴 242105
禁 241868
擴 241668
風 240518
涉 238989
批 238734
頭 238592
secretariat 238326
予 238003
檢 237847
three 237264
屬 236117
擬 235231
往 234548
試 234259
among 233245
delegation 233079
situation 232889
歧 232249
him 232154
積 231928
食 231531
adopted 231390
service 231381
恐 230549
capacity 229888
nuclear 229734
創 229589
越 228005
框 226969
融 226668
諾 226576
某 226568
technical 226320
##t 226061
聲 225981
免 225707
access 225451
item 225353
析 225310
滿 225285
復 225228
us 225046
星 224637
continue 223694
##i 223529
善 223457
taken 223363
素 223062
男 222090
載 221676
醫 221640
plan 220521
court 220488
企 220475
december 220439
群 220149
又 220148
章 219736
mission 219619
配 219376
眾 219291
each 219154
缺 218752
very 218241
same 218080
周 218064
較 217538
g 216833
錄 216119
僅 215251
role 215174
recommendations 215145
革 214824
顧 214470
林 214428
good 214316
end 213682
used 213605
障 213451
gender 213336
local 212955
regard 212936
data 212828
習 212504
without 212211
reports 212118
set 211788
瓦 211521
life 211140
態 211108
貧 210737
second 210623
佔 209686
死 209572
progress 209553
侵 209380
夥 209024
字 208528
快 208511
印 208433
specific 208178
##al 208096
framework 207719
established 206873
斷 206869
board 206428
con 204908
居 203853
present 203556
均 203531
般 203259
幫 202617
置 202511
control 202127
f 201965
respect 201832
房 201691
accordance 201651
線 201609
way 201602
老 201466
班 201297
child 201084
violence 200949
fund 200883
北 200825
速 200329
representative 199818
富 199627
勞 199578
疾 199046
case 198704
愛 198693
户 197697
long 197464
康 197417
鼓 196712
層 196344
##o 196253
緊 196097
才 195278
密 195091
because 194882
勵 194060
full 193522
細 193252
卡 191872
just 191150
養 191058
介 191056
day 190850
civil 190671
製 190639
area 189516
互 189107
view 188818
隨 188752
sustainable 188113
criminal 188084
africa 187950
藥 187837
享 187767
師 187555
building 187471
million 187256
cases 187067
june 186754
幹 186313
艾 185980
institutions 185842
field 185694
place 184598
終 184593
project 184527
add 184335
necessary 183447
total 183430
appropriate 183308
功 183115
technology 183000
region 182801
did 182082
south 182070
basis 181952
捐 181845
寫 181804
迎 181345
困 181245
water 181113
possible 180961
伯 180804
初 180786
憲 180764
groups 180629
孩 180529
督 180285
城 179957
銀 179725
深 179696
籌 179312
針 179265
increase 178954
society 178810
私 178576
殘 178545
policies 177998
sector 177699
operations 177574
貨 177137
act 177023
擇 176900
developed 176598
even 176541
療 176527
尤 176225
精 176063
損 175855
雙 175851
##f 175403
needs 175275
environment 175133
co 174703
force 174529
meetings 174457
挑 174436
then 174311
守 174262
change 174186
神 174089
department 173684
police 173475
束 173412
military 173152
落 172656
main 172644
according 172502
justice 172023
夫 171032
##ization 170722
upon 170498
ii 170313
consideration 169780
洋 169719
##n 169637
en 169580
available 168988
proposed 168666
像 168649
note 167833
怖 167401
recent 167380
紹 166716
散 166683
票 166156
provisions 166109
population 165983
校 165898
嗎 165824
discrimination 165701
滋 165553
include 165381
簡 165143
go 164933
given 164548
july 164184
蘇 164028
issue 163967
still 163894
great 163889
聽 163694
差 163675
購 163667
降 163557
##l 163538
絡 163338
##y 163281
humanitarian 163048
family 163025
穩 162820
救 162803
african 162795
准 162617
governments 162261
agreement 162032
雷 161983
concerned 161947
急 161815
last 161674
account 161545
##m 160990
future 160551
term 160503
走 160348
講 160268
foreign 160084
俄 159879
research 159686
weapons 159323
概 159163
additional 158602
third 158399
簽 158056
small 158032
午 157920
continued 157900
different 157674
傷 157548
哈 157487
違 157474
food 157168
念 156799
promote 156179
遠 156086
波 155911
似 155797
know 155566
address 155415
千 155174
various 155145
揮 155026
land 154694
help 154678
administrative 154123
腦 154051
七 153933
輕 153926
遵 153773
##er 153764
材 153513
business 153375
joint 153340
賠 153314
conflict 153275
債 152928
much 152658
noted 152382
絕 152040
levels 151894
o 151689
major 151441
pre 151278
considered 151123
poverty 151049
multi 151044
treaty 150892
超 150871
瞭 150779
required 150727
答 150684
rules 150655
銷 150204
european 150144
participation 149621
status 149533
therefore 148979
coordination 148785
青 148719
declaration 148680
importance 148549
##sar 148352
駐 148176
島 148105
站 147449
private 147422
償 147319
親 147157
consultation 146932
釋 146849
綜 146801
october 146734
requirements 146724
堅 146282
question 146260
興 146096
呼 145804
september 145718
登 145594
above 145474
und 145235
central 145081
宗 144984
剛 144845
environmental 144780
annex 144383
履 144342
several 144096
projects 144016
does 143851
affairs 143661
results 143640
籲 143510
own 143508
光 143504
conditions 143487
歷 143316
men 143172
客 143080
停 143030
早 143019
addition 142562
旅 142209
authorities 142121
丹 141842
november 141782
廳 141526
executive 141476
union 141379
##g 141303
document 141133
de 141099
impact 141090
another 141054
increased 140897
找 140831
th 140766
means 140609
monitoring 140409
白 140029
奧 140012
遭 139805
market 139697
雖 139396
submitted 139259
free 139088
階 138814
符 138669
福 138461
section 138244
comprehensive 138139
care 137947
get 137728
representatives 137580
bodies 137521
邦 137453
##port 137420
飛 137343
##mament 137277
approach 137267
台 137261
米 137210
clear 137095
##ity 136744
乎 136720
薩 136710
古 136375
agencies 136291
ex 136166
large 135781
牙 135759
##es 135723
march 135682
九 135395
every 135324
systems 135313
泛 135289
significant 135010
personnel 134807
crime 134719
towards 134673
聞 134263
拿 134057
紀 134036
訪 134029
樂 133898
庫 133738
村 133610
result 133608
災 133582
space 133554
油 133546
don 133430
application 133284
making 133244
百 133175
domestic 133011
母 132758
key 132647
strategy 132548
沙 132332
attention 132129
whether 132113
火 131801
cost 131735
risk 131682
energy 131527
若 131374
man 131311
八 131087
迫 130943
尊 130888
升 130878
study 130732
rap 130619
better 130583
黎 130543
##ment 130217
common 130165
延 129818
prevention 129659
輸 129623
繫 129594
down 129499
post 129362
謝 129311
principles 129238
底 129202
protocol 129176
establishment 129033
破 128927
growth 128845
cultural 128727
rule 128694
連 128552
direct 128428
石 128366
股 128297
##te 128217
複 127883
授 127851
遍 127830
statement 127819
here 127748
##go 127169
張 127089
礙 126820
景 126613
久 126538
遇 126504
agreed 126464
糧 125970
concern 125802
especially 125589
熱 125520
regular 125491
improve 124956
壓 124921
買 124817
context 124778
received 124441
advisory 124348
taking 124290
徵 124290
鍵 124260
迪 124143
person 124119
港 124103
give 123961
adoption 123942
permanent 123905
treatment 123679
standards 123645
costs 123624
王 123525
resolutions 123518
mandate 123460
探 123370
best 123304
思 123237
centre 122908
provision 122886
卻 122826
quality 122797
school 122741
旨 122689
april 122538
染 122471
覆 122463
reporting 122440
five 122434
##b 122091
january 122034
億 122003
販 121837
副 121772
request 121689
para 121402
production 121313
h 121280
goals 121244
##h 121157
吉 121023
concerning 121014
埃 120988
indigenous 120791
requests 120596
歲 120585
bank 120468
覺 120339
power 120333
##eur 120309
might 120220
problems 120066
next 119939
consider 119803
back 119790
planning 119630
requested 119561
脅 119509
chinese 119493
reported 119434
internal 119373
窮 119360
獻 119353
least 119249
off 119171
called 119155
播 119117
four 119001
##tion 118957
森 118939
governmental 118926
legislation 118761
競 118734
殺 118210
serious 118128
peacekeeping 118024
税 117875
come 117736
prevent 117712
送 117700
w 117653
strengthen 117562
existing 117511
壇 117422
follow 117294
annual 117002
託 116696
良 116670
您 116666
曾 116652
increasing 116535
open 116397
友 116376
responsibility 116279
片 116277
含 116255
課 116107
investment 115996
弱 115717
armed 115684
certain 115682
倡 115506
terms 115461
subject 115160
procedures 114837
put 114721
amount 114588
due 114539
aware 114384
尋 114241
response 114077
吸 114072
版 113885
regarding 113851
contained 113805
assessment 113803
fact 113664
terrorism 113558
administration 113483
餘 113340
花 113328
unit 113284
funds 113209
擁 113179
rate 112875
analysis 112853
strengthening 112726
##u 112610
遊 112518
become 112226
self 111993
避 111971
換 111946
角 111908
彈 111756
often 111521
agency 111513
found 111449
close 111415
烏 111256
塔 111164
亡 111135
假 111113
example 111054
罰 110772
expressed 110584
practices 110561
省 110522
age 110494
ad 110362
develop 110161
challenges 110128
included 110082
previous 110082
implement 110047
forces 109755
evaluation 109696
employment 109640
income 109624
僱 109225
relating 109206
st 109198
mechanisms 109027
already 108941
democratic 108858
fully 108741
together 108593
遺 108075
婚 108028
equality 107995
performance 107370
透 107355
form 107346
east 107328
華 107121
瑞 107068
experts 107005
ministry 106939
table 106781
contributions 106699
reform 106552
航 106499
authority 106476
黑 106399
basic 106348
##re 106331
labour 106202
史 106196
尚 106077
壞 106042
魯 106020
com 105855
problem 105564
退 105504
射 105483
providing 105395
think 105311
america 105100
provides 105021
thus 104987
拘 104970
音 104924
practice 104873
洛 104813
official 104674
山 104657
room 104256
逐 104247
strategic 104129
promotion 104068
company 103973
錢 103871
衡 103862
返 103842
active 103821
too 103721
strong 103655
peoples 103564
短 103561
equal 103490
途 103486
敦 103464
days 103394
背 103361
半 103337
decisions 103324
paper 103173
took 102998
詞 102983
yet 102931
摩 102872
far 102869
詳 102831
light 102720
equipment 102582
early 102482
倫 102446
effect 102283
addressed 102118
##w 101989
併 101987
home 101974
ms 101957
past 101898
辯 101727
combat 101471
obligations 101467
author 101300
賣 101275
matters 101204
##ary 101132
恢 100862
today 100756
victims 100752
individual 100330
lack 100049
##able 99908
financing 99777
疑 99738
date 99553
wide 99533
property 99480
讚 99405
decided 99321
al 99287
documents 99202
干 99147
economy 99078
line 99018
february 98924
entitled 98920
黨 98866
august 98844
forms 98754
香 98634
having 98507
固 98466
iii 98402
售 98298
雜 98271
procedure 98079
reduction 98031
喜 98004
independent 97978
body 97977
trafficking 97927
notes 97899
rec 97873
mechanism 97717
am 97655
dialogue 97600
natural 97595
establish 97432
matter 97429
want 97270
panel 97256
imp 97207
父 97132
value 97122
貢 97084
meet 96944
ce 96884
interest 96858
potential 96756
乏 96708
operational 96633
冊 96543
演 96440
knowledge 96321
arms 96199
organized 96104
although 96030
list 95807
always 95774
others 95768
questions 95655
climate 95643
tribunal 95627
賽 95485
objective 95454
around 95342
palestinian 95220
focus 95106
鑑 95029
actions 95006
渡 94940
commitment 94938
激 94915
船 94831
say 94798
哪 94793
young 94724
little 94604
director 94509
arab 94402
needed 94289
sexual 94185
端 94154
less 94149
##ally 94133
cn 94093
responsible 93893
練 93824
able 93769
position 93647
initiatives 93608
point 93206
war 93095
letter 93088
映 93087
##ting 93019
safety 92751
operation 92606
廢 92598
six 92501
fa 92401
territory 92375
missions 92224
communication 92221
盧 92151
州 92059
laws 91960
asia 91812
please 91748
##af 91544
living 91504
une 91481
adequate 91388
召 91291
workers 91279
綱 91259
old 91227
異 91197
using 91049
statements 91034
money 90816
again 90721
air 90681
眼 90607
short 90204
low 90185
funding 90136
怎 90093
experience 90091
微 89983
儲 89978
k 89904
靠 89718
never 89712
division 89701
exchange 89464
regulations 89350
essential 89173
method 89079
welcome 89073
forum 89054
錯 89035
few 89015
promoting 88933
chairman 88758
酷 88655
plans 88541
姆 88442
典 88431
貸 88405
israel 88337
priority 88327
final 88231
跨 88202
敗 88186
cr 87937
蓋 87928
expected 87896
universal 87863
fourth 87835
允 87484
朗 87473
violations 87414
pay 87264
higher 87221
媒 87201
greater 87092
code 86974
味 86970
team 86936
course 86716
principle 86710
##ci 86668
recommendation 86622
rural 86604
let 86554
績 86396
red 86392
温 86385
anti 86209
贊 86209
nature 86136
forward 86066
achieve 86064
##nium 86060
prepared 85784
until 85677
poor 85625
跟 85271
limited 85200
once 85170
v 85159
crisis 85102
讀 85025
discussion 84981
partners 84905
media 84889
medical 84752
refugees 84699
months 84587
capital 84477
call 84359
阻 84308
conduct 84283
bien 84273
rev 84133
agreements 83959
京 83956
guidelines 83926
english 83912
聖 83676
殖 83657
iraq 83588
抗 83521
informal 83502
strategies 83499
##da 83486
hiv 83419
changes 83394
purpose 83184
supported 83070
integrated 83057
兵 82969
追 82852
whole 82838
enhance 82769
opportunities 82730
故 82611
involved 82608
recommended 82579
understanding 82572
products 82356
minister 82315
resource 82314
girls 82311
hand 82243
陸 82240
遣 82234
pl 82023
find 81957
facilities 81856
officials 81805
sea 81783
acts 81763
communications 81688
steps 81604
pro 81580
why 81542
污 81538
month 81502
紐 81421
offices 81394
貝 81338
committed 81335
cannot 81230
carried 81180
##is 81081
affected 81003
model 80831
approved 80822
overall 80780
love 80644
捕 80414
implementing 80358
american 79953
headquarters 79910
##k 79871
objectives 79871
##bu 79864
communities 79688
similar 79679
晚 79669
齡 79378
fifth 79328
館 79277
ll 79255
呢 79232
吧 79197
material 79032
implemented 78951
look 78754
issued 78462
former 78459
submit 78360
transfer 78291
org 78283
design 77940
summit 77830
done 77738
幣 77709
evidence 77671
##lateral 77643
替 77619
ve 77605
佳 77550
drug 77523
real 77507
provisional 77458
positive 77341
耶 77332
network 77319
pursuant 77253
covenant 77214
敍 77101
house 77022
趨 76984
im 76833
ins 76724
誤 76681
return 76606
勤 76540
剝 76519
instruments 76497
arrangements 76452
##ion 76433
going 76332
fundamental 76257
aimed 76222
benefits 76165
city 76098
貼 75997
kind 75936
截 75874
汗 75796
behalf 75671
complete 75654
initiative 75644
officers 75636
facilitate 75618
##on 75566
articles 75552
industry 75515
proposals 75395
##vern 75302
耳 75192
觸 75038
吃 75017
郵 75011
肯 74987
殊 74939
play 74938
aspects 74902
博 74772
aids 74706
##il 74679
protect 74605
潛 74592
opportunity 74477
##mental 74423
譯 74345
effects 74303
freedom 74290
claim 74270
x 74262
respective 74203
face 74202
n 74146
uno 74116
below 74108
ensuring 74032
削 74022
europe 73905
丁 73881
套 73869
immediate 73841
millennium 73805
expert 73785
commissioner 73697
posts 73537
sc 73403
hours 73387
惡 73340
exercise 73315
infrastructure 73159
proposal 73150
assist 73063
緩 73044
audit 72965
籍 72947
滅 72938
near 72928
紅 72920
students 72871
individuals 72869
##ta 72866
methods 72791
informed 72783
scientific 72520
presented 72437
functions 72432
counter 72410
毛 72380
頓 72327
徑 72246
澳 72199
em 72101
靈 72094
processes 71991
institutional 71887
ac 71861
actual 71833
primary 71771
balance 71730
藝 71730
##ive 71729
university 71574
rep 71557
智 71472
items 71447
##in 71441
reference 71428
reduce 71401
訊 71354
註 71342
japan 71338
bring 71309
##ized 71268
stated 71264
death 71260
##ic 71214
##ble 71138
remain 70958
language 70927
鬥 70889
conducted 70860
既 70746
wish 70643
朝 70496
徙 70310
驟 70209
torture 70208
冷 70159
york 70154
debt 70149
prior 70031
construction 70014
compliance 70008
relations 69912
recommends 69879
russian 69848
##an 69839
暫 69739
休 69721
fifty 69676
血 69614
##to 69539
##se 69535
##mi 69473
negotiations 69457
歸 69449
transport 69313
professional 69303
lead 69237
麥 69166
head 69122
task 69119
away 69057
##me 69012
remains 69006
week 68988
concerns 68976
諸 68967
contribute 68867
partnership 68836
薪 68791
帝 68785
trust 68774
##ize 68771
judicial 68762
嫩 68747
rather 68737
middle 68709
零 68647
manner 68574
detention 68536
拒 68520
undertaken 68516
##ation 68509
materials 68480
disabilities 68353
structure 68349
iv 68230
劇 68216
views 68169
benefit 68133
蒙 68065
contribution 68059
successful 67969
traditional 67870
companies 67750
迅 67744
##pro 67692
##de 67657
calls 67621
regions 67580
蹤 67528
charter 67522
樓 67517
participants 67453
share 67312
geneva 67286
goods 67285
##firm 67251
extra 67241
座 67181
訟 67174
standard 67153
rates 66892
園 66837
urban 66820
crimes 66758
constitution 66753
integration 66749
遲 66743
culture 66684
##ch 66665
曼 66578
north 66575
沃 66558
賬 66546
things 66535
hope 66518
撒 66506
##st 66482
奇 66481
times 66479
allow 66460
outcome 66394
mind 66369
recognized 66320
軟 66131
邀 66036
keep 66014
enforcement 66006
deep 65980
families 65905
轄 65888
爆 65808
preparation 65792
dated 65785
##ce 65704
輪 65571
棄 65547
believe 65546
##cta 65483
federation 65306
縮 65222
炸 65194
脱 65193
懷 65186
混 65176
governance 65158
improving 65107
industrial 65078
hong 65075
summary 65062
苦 65038
difficult 64971
job 64917
critical 64902
烈 64890
啟 64816
u 64784
ali 64783
築 64742
text 64739
www 64732
throughout 64728
永 64689
live 64682
撤 64678
閉 64607
巨 64601
酒 64531
ways 64489
頁 64476
israeli 64434
substantive 64256
oil 64242
statistics 64202
connection 64197
legislative 64191
句 64188
asked 64157
chair 64093
刻 64070
itself 64066
##ies 64022
personal 64008
劑 64005
app 64001
export 63926
despite 63848
una 63808
趣 63725
claims 63673
schools 63653
賞 63634
class 63593
聘 63590
皮 63557
leave 63491
忍 63473
travel 63431
礦 63404
identified 63294
met 63208
commitments 63189
unicef 63153
achieved 63152
original 63054
led 63017
range 62993
慣 62932
##x 62923
emergency 62834
institute 62812
physical 62802
朋 62784
initial 62648
left 62609
science 62573
improved 62513
name 62457
contract 62354
came 62308
隻 62193
source 62158
##fp 62125
half 62113
peaceful 61989
腐 61964
centres 61940
movement 61801
says 61780
##ling 61761
chapter 61725
effort 61649
hard 61635
央 61624
elimination 61599
activity 61537
萊 61521
隆 61489
introduced 61476
##region 61464
res 61464
outside 61414
##less 61376
across 61372
road 61358
proliferation 61352
interests 61316
vote 61300
植 61280
youth 61235
governing 61195
aid 61102
獄 61086
create 61078
撥 61078
words 61070
el 61053
抵 61045
studies 61044
civilian 60977
距 60957
demand 60948
##ted 60828
assets 60788
federal 60715
kingdom 60697
貴 60682
幅 60665
price 60607
pacific 60601
樹 60517
goal 60458
referred 60452
kong 60430
purposes 60428
supply 60394
季 60342
maintenance 60265
彙 60251
麻 60141
entities 60115
輛 60094
external 60077
毫 59956
懲 59912
west 59900
叫 59899
謹 59802
association 59789
side 59744
oh 59717
test 59717
got 59690
art 59663
sudan 59655
indicated 59601
##ers 59595
broad 59580
india 59540
攻 59521
墨 59496
汽 59450
elements 59448
##tera 59441
scale 59420
formal 59404
includes 59315
inc 59239
investigation 59182
ongoing 59173
later 59142
themselves 59137
participate 59127
sessions 59125
磋 59017
circumstances 58982
露 58963
奪 58952
revised 58942
ab 58934
require 58928
voluntary 58903
show 58898
trans 58748
along 58731
housing 58688
era 58674
es 58620
core 58596
enable 58580
finance 58566
guidance 58550
sources 58550
燃 58516
apply 58385
荷 58351
twenty 58186
soon 58135
factors 58128
##en 58126
waste 58077
##or 58066
碼 58055
鮮 57982
del 57980
estimated 57929
brought 57901
招 57871
楚 57797
build 57779
subsequent 57750
scope 57746
sixty 57655
幸 57612
educational 57555
匯 57508
rei 57400
discussions 57343
##fi 57309
car 57300
##pl 57249
territories 57240
cross 57223
commercial 57202
whose 57174
applied 57169
signed 57160
操 57129
distribution 57078
technologies 57040
痛 56984
indicators 56937
j 56850
introduction 56835
##ant 56788
parts 56771
type 56749
election 56737
木 56717
points 56708
獎 56705
practical 56698
abuse 56668
average 56665
step 56573
really 56455
封 56428
efficiency 56412
##v 56381
魚 56367
毀 56328
穿 56301
stability 56235
congo 56192
##qui 56169
something 56168
deal 56135
citizens 56100
chief 56041
procurement 55960
ground 55939
proceedings 55918
驅 55906
start 55895
押 55893
禮 55865
border 55846
canada 55829
single 55759
takes 55743
sectors 55695
delivery 55566
聚 55529
恩 55517
situations 55512
虐 55428
either 55346
河 55301
揚 55271
events 55247
mentioned 55221
relationship 55117
officer 55105
ever 55014
adopt 55012
welcomed 55012
developments 55008
旦 55005
##cy 54932
mother 54882
elections 54865
furthermore 54803
compensation 54716
consistent 54667
##hc 54649
筆 54636
periodic 54598
sufficient 54510
billion 54456
comments 54438
##ti 54437
markets 54392
莫 54388
##nt 54349
mo 54291
disaster 54246
associated 54208
ethnic 54190
consensus 54128
korea 54109
fair 54096
淨 53957
遞 53956
seen 53949
sixth 53927
leaders 53908
stakeholders 53882
厄 53863
志 53820
encourage 53813
known 53813
翻 53671
##ral 53565
paid 53562
cause 53555
賴 53553
continues 53463
衣 53377
津 53268
target 53248
collaboration 53192
hold 53177
thought 53086
菲 53005
island 52993
ill 52867
priorities 52827
##rs 52808
洗 52807
孕 52743
患 52689
##ism 52685
ability 52679
credit 52678
responsibilities 52671
店 52646
##ar 52644
advice 52631
western 52617
畢 52594
旺 52528
conclusion 52504
units 52463
mutual 52447
supporting 52347
almost 52303
achieving 52269
carry 52241
transition 52182
went 52173
##z 52122
success 52115
addressing 52112
漲 51965
lower 51953
identify 51878
盤 51870
loss 51844
mu 51798
religious 51726
慢 51722
net 51674
heart 51657
discussed 51647
髮 51623
##ification 51612
senior 51595
襲 51489
fu 51481
##mun 51421
longer 51393
drugs 51373
##ry 51336
growing 51303
receive 51290
##us 51244
塊 51212
租 51212
忘 51147
頻 51138
板 51123
麗 51121
藏 51098
relation 51022
continuing 50974
拜 50969
recovery 50924
vi 50835
opinion 50830
beyond 50806
##ty 50788
illegal 50780
昂 50698
extent 50684
agricultural 50657
efficient 50640
treaties 50630
completed 50576
亂 50524
鐘 50518
big 50515
though 50511
鐵 50449
recalling 50445
debate 50420
determination 50408
establishing 50373
ar 50335
trial 50256
threat 50242
##sp 50239
vulnerable 50228
na 50199
reached 50190
maintain 50118
廠 50065
woman 50063
prices 50047
bureau 50030
唯 49984
##enary 49967
頒 49958
insurance 49945
攤 49915
cop 49870
specialized 49764
round 49694
stage 49687
economies 49663
optional 49608
phase 49476
##ri 49414
expenditure 49405
閱 49405
makes 49399
designed 49314
france 49231
stock 49200
rapid 49133
courts 49120
independence 49109
茲 49072
ec 49057
read 49056
invited 49046
enough 48991
瓜 48979
female 48972
##ate 48955
appeal 48953
sr 48900
reasons 48829
##men 48817
tell 48814
循 48747
applications 48739
moreover 48717
corruption 48696
visit 48690
坐 48678
french 48658
event 48654
祝 48652
night 48650
敵 48649
approval 48628
id 48597
繳 48529
tax 48497
encouraged 48426
幕 48398
destruction 48332
function 48322
conferences 48280
reason 48158
afghanistan 48151
bilateral 48075
defence 48050
偏 47982
survey 47967
appreciation 47965
creation 47925
##ial 47899
relief 47896
##th 47873
函 47869
racial 47859
positions 47854
氧 47847
caribbean 47832
finally 47732
urgent 47730
rest 47719
泰 47678
媽 47668
##ec 47628
舞 47611
leadership 47605
agriculture 47587
jurisdiction 47518
徹 47501
safe 47495
friend 47483
乾 47444
##ven 47438
solution 47411
acc 47376
disc 47361
feel 47296
順 47270
##le 47257
electronic 47242
##ma 47235
seek 47229
闡 47156
##as 47108
屋 47098
迴 47087
challenge 47045
occupied 47042
history 47035
岸 47026
beijing 47021
guide 47015
compared 47009
r 46923
migration 46880
site 46845
proper 46826
majority 46821
enterprises 46770
raised 46709
internet 46707
useful 46665
run 46653
requires 46652
detailed 46605
terrorist 46589
妨 46570
obligation 46568
decade 46565
笑 46558
桑 46543
product 46539
rein 46538
parliament 46523
base 46521
god 46507
remained 46486
improvement 46437
word 46435
床 46427
eu 46386
陷 46373
謀 46353
cash 46336
赫 46336
negative 46320
contact 46317
violation 46316
驚 46276
陽 46216
隔 46202
move 46144
partnerships 46125
temporary 46124
created 46117
ind 46110
registration 46106
follows 46103
skills 46102
cover 46078
sent 46066
weapon 46058
nothing 46021
settlement 46017
serve 45963
doing 45957
街 45927
fire 45911
靜 45910
賓 45862
mass 45845
entire 45820
誰 45817
conventions 45796
##ng 45692
倒 45681
sure 45671
displaced 45667
applicable 45665
illicit 45618
judges 45579
##ba 45573
pr 45554
寶 45549
accountability 45523
嶼 45483
encourages 45460
##wa 45431
擾 45429
conclusions 45427
web 45400
鎮 45387
concluded 45384
iran 45377
usual 45377
turn 45354
##man 45353
惠 45271
症 45256
quick 45240
learning 45215
##lo 45168
##ro 45099
煙 45099
confidence 45009
sharing 45008
regime 44898
caused 44873
germany 44781
誠 44770
islamic 44693
series 44674
sound 44608
##ds 44596
competition 44584
duty 44572
covered 44553
achievement 44542
韓 44542
avoid 44539
offer 44527
latin 44514
榮 44509
parents 44488
link 44473
ko 44420
works 44397
掉 44397
攸 44358
aim 44329
lives 44284
紙 44246
##ent 44191
##izing 44176
槍 44071
operating 44068
forest 44062
normal 44056
seven 44056
suggested 44008
separate 44005
##pa 43960
record 43956
##di 43954
裔 43940
脆 43927
貫 43909
cuba 43782
摘 43743
沿 43684
gas 43680
餐 43676
submission 43661
syrian 43649
##sa 43623
仲 43623
稿 43613
beginning 43584
leading 43514
earth 43462
##ze 43459
late 43428
father 43336
##pen 43310
presence 43273
宜 43264
穆 43258
沉 43244
reach 43212
鄰 43212
monitor 43202
q 43202
minimum 43193
reflected 43190
cl 43172
relative 43150
tools 43089
began 43083
alleged 43062
focused 43035
##ia 43023
closed 43008
sex 42999
top 42996
payment 42995
##ra 42946
concept 42874
賦 42861
accounts 42849
##ili 42847
extreme 42840
勝 42837
##gram 42826
observations 42825
陳 42787
noting 42746
裂 42721
mexico 42687
press 42681
##ps 42672
sanctions 42664
繁 42631
understand 42624
content 42621
閣 42619
潔 42617
modern 42612
medium 42591
cu 42588
australia 42567
entry 42560
written 42552
guarantee 42546
computer 42512
safeguard 42489
nor 42468
instrument 42467
蒂 42461
##mo 42448
mine 42433
alternative 42422
enhanced 42415
transparency 42409
##con 42365
complex 42304
ago 42303
thing 42270
ia 42266
荒 42260
ne 42251
漸 42233
畫 42214
熟 42207
##um 42166
host 42138
描 42129
耗 42126
chemical 42115
accounting 42100
oversight 42076
told 42068
fight 42057
standing 42026
approaches 41979
statistical 41947
heard 41914
actors 41909
##cs 41891
kuwait 41842
exploitation 41828
express 41800
hr 41781
踐 41713
criteria 41712
damage 41701
酌 41701
program 41682
implications 41641
##ify 41605
measure 41578
##est 41558
opening 41538
vice 41504
workshop 41486
added 41482
##lf 41477
怕 41455
enterprise 41447
ip 41424
##ve 41375
types 41305
掌 41300
urges 41271
飲 41260
collection 41256
ka 41231
charge 41190
圓 41183
濫 41135
寬 41115
records 41063
液 41057
夜 41037
resulting 41036
traffic 41033
##at 41029
raising 40966
constitutional 40919
asian 40916
launched 40906
拖 40895
vienna 40830
conflicts 40778
敏 40770
la 40688
醒 40671
component 40636
involving 40635
consequences 40574
震 40496
lot 40477
##ido 40450
decides 40450
collective 40441
enhancing 40438
reduced 40434
micro 40395
##rim 40378
陣 40342
默 40319
democracy 40309
northern 40307
preparatory 40300
帳 40213
##id 40187
harmon 40185
悉 40179
prison 40157
organizational 40133
rwanda 40133
##ities 40083
try 40057
departments 40051
##ea 40008
concrete 39989
兼 39948
##co 39924
firm 39905
借 39896
risks 39884
傑 39850
pakistan 39806
牌 39788
倍 39741
##la 39729
憾 39710
忽 39696
##ie 39693
foundation 39665
advance 39662
覽 39629
owing 39621
true 39598
酸 39554
sign 39545
substantial 39542
planned 39538
漠 39510
observer 39496
& 39473
疫 39454
shown 39396
documentation 39366
bad 39361
rehabilitation 39357
indeed 39351
甲 39308
banks 39302
徒 39297
capacities 39274
islands 39238
券 39212
described 39209
punishment 39206
pressure 39188
deployment 39185
reflect 39176
recognition 39148
regulation 39124
def 39104
difficulties 39102
漁 39090
aircraft 39052
respond 39028
brazil 39013
挪 38995
逮 38990
曲 38955
舊 38921
heads 38907
黃 38904
##rc 38901
誌 38837
friends 38826
membership 38806
donors 38781
mainstream 38775
causes 38741
followed 38700
elected 38636
lebanon 38627
側 38616
looking 38590
undertake 38491
妻 38488
mit 38463
診 38441
歌 38404
stressed 38380
恤 38372
percentage 38339
dollars 38321
counsel 38311
藉 38272
mis 38271
rise 38257
gave 38249
ministers 38244
marriage 38240
灣 38240
saw 38215
gr 38210
page 38168
coordinator 38164
determined 38149
absence 38135
coming 38130
cooperate 38087
ended 38060
seventh 38058
傾 38053
eastern 38036
玩 38027
southern 37972
野 37943
##ge 37895
##dc 37885
book 37884
+ 37842
published 37841
committees 37820
_ 37810
languages 37767
raise 37760
reducing 37735
des 37699
堂 37664
prepare 37601
stress 37552
determine 37536
thank 37519
liberia 37393
伙 37374
圭 37347
approximate 37325
electoral 37323
ma 37308
failure 37296
##ur 37294
news 37248
##ful 37228
握 37224
ho 37184
##du 37162
somalia 37118
睡 37114
lost 37113
intended 37088
冰 37088
ngos 37051
eight 37039
defined 37033
refugee 37028
shared 36922
漢 36895
腳 36879
hoc 36844
strengthened 36838
碳 36833
mean 36808
逃 36807
prosecution 36789
址 36780
牛 36773
contributing 36744
definition 36743
##vis 36738
outer 36699
ic 36667
emerging 36665
forced 36637
int 36563
accepted 36541
idea 36533
折 36520
##ab 36519
zone 36500
extended 36496
white 36434
##cc 36413
氯 36399
##pr 36395
placed 36391
discuss 36383
tool 36379
填 36333
豐 36330
estimates 36327
platform 36325
cp 36304
戲 36287
stop 36286
輔 36284
solutions 36236
##ne 36224
ga 36214
ob 36179
fuel 36177
累 36151
shows 36127
category 36105
didn 36079
> 36063
instead 36062
sense 36056
options 36032
district 36029
possibility 36029
sometimes 36019
dr 36018
attacks 35952
systematic 35902
guinea 35886
##os 35853
assessments 35825
allowed 35803
radio 35786
workshops 35773
recruitment 35763
consumption 35739
##ali 35718
##ct 35703
玻 35686
ask 35663
喀 35648
acting 35646
involvement 35628
marine 35618
ha 35614
dail 35613
綠 35590
inspection 35548
胞 35490
fields 35479
civilians 35478
donor 35457
亮 35449
keeping 35434
##tri 35407
雨 35357
reviewed 35336
##ance 35308
ratification 35308
eighth 35297
dar 35290
expertise 35255
##ter 35165
ban 35152
刺 35123
processing 35120
organs 35097
highest 35095
percent 35017
contracts 35014
桌 34991
chairperson 34983
produced 34981
ninth 34978
弗 34978
green 34971
representation 34938
sa 34933
肉 34925
forty 34909
stand 34905
size 34894
酬 34888
morning 34876
##ties 34867
started 34830
檔 34806
= 34802
recognizing 34794
mandates 34764
campaign 34763
cc 34746
earlier 34737
##cu 34685
##ts 34648
ministerial 34647
direction 34646
bo 34622
setting 34598
won 34591
##national 34572
uses 34556
##building 34516
slow 34500
assess 34489
邁 34482
figure 34480
places 34465
inclusion 34462
姻 34459
values 34449
observers 34420
跡 34397
unless 34389
仰 34327
son 34311
represented 34302
緣 34301
ready 34280
mail 34227
戈 34217
participated 34213
engaged 34190
旋 34185
origin 34179
expression 34175
扎 34170
##sh 34149
仇 34143
minorities 34137
crucial 34128
##ire 34114
emphasis 34105
egypt 34102
cut 34074
sp 34057
complain 34052
import 34039
啊 34028
##ous 34015
堡 34003
alone 34002
鄉 33974
盛 33934
became 33896
輯 33880
bill 33867
prime 33865
涵 33864
disease 33837
##ga 33788
跑 33753
prosecutor 33750
z 33734
everyone 33728
affect 33716
##her 33687
su 33680
learn 33668
inform 33667
ir 33659
coordinated 33651
雅 33639
himself 33605
investigations 33601
speaking 33587
background 33580
remaining 33558
##for 33556
cd 33554
learned 33547
spirit 33536
urged 33522
fall 33517
隱 33511
customs 33480
##tes 33438
迄 33408
networks 33382
浦 33365
considering 33355
喪 33324
il 33313
examination 33290
chamber 33288
xx 33265
behind 33261
appointment 33250
af 33247
eyes 33208
絲 33205
allocation 33202
offences 33198
targets 33191
ten 33180
freedoms 33140
etc 33128
暗 33068
floor 33036
emphasized 33031
easy 32987
##vo 32939
secondary 32905
dealing 32861
寧 32845
亦 32830
users 32812
掃 32783
deputy 32777
箱 32772
「 32758
da 32750
」 32726
汶 32713
儀 32687
formula 32681
yes 32675
eliminate 32672
influence 32649
severe 32615
produce 32605
##cr 32592
holding 32567
interim 32550
ict 32531
limit 32531
resulted 32518
##ens 32514
findings 32504
girl 32480
杜 32480
palestine 32461
judge 32456
振 32439
perspective 32430
congress 32409
se 32395
occupation 32387
##sse 32372
vital 32363
gross 32335
century 32301
software 32300
imposed 32288
components 32274
threats 32249
##com 32243
factor 32243
enjoy 32241
##age 32221
briefing 32216
details 32208
頂 32190
疆 32168
左 32166
##bil 32154
foster 32118
creating 32095
front 32082
website 32073
quite 32064
弟 32064
institution 32028
turkey 32023
degree 32009
右 32007
##j 31986
felt 31965
##dication 31955
identification 31953
辱 31929
坡 31927
ambassador 31924
sales 31895
kosovo 31890
抱 31888
庇 31869
participating 31841
cities 31834
trends 31834
lord 31823
鬆 31812
integrity 31793
遷 31788
##rr 31776
ben 31764
speak 31759
##na 31744
consent 31742
reconciliation 31727
ge 31713
wife 31696
army 31677
structures 31649
ag 31628
帕 31619
ref 31597
diversity 31580
accept 31551
托 31551
np 31545
competitive 31524
weeks 31521
responses 31517
looked 31499
listed 31490
om 31486
wrong 31479
董 31464
appointed 31452
ki 31446
瑪 31443
##ence 31442
registered 31420
condition 31419
victim 31407
settlements 31398
principal 31395
##am 31390
葡 31375
cat 31360
ina 31357
##med 31352
滑 31344
secure 31336
whom 31327
requirement 31326
##ol 31311
interested 31311
employees 31310
mid 31310
indonesia 31307
strict 31296
ivo 31291
consultative 31250
inclusive 31215
constitute 31200
reforms 31151
##ef 31115
assistant 31103
pension 31098
migrants 31095
except 31084
courses 31083
##ite 31076
teaching 31069
contributed 31067
indicate 31063
honour 31041
ci 31022
hands 31022
conform 31014
飯 31012
street 30999
authorized 30962
凱 30927
object 30865
subsidiary 30859
##imi 30856
grounds 30845
夢 30837
硬 30825
##ari 30821
scheme 30802
@ 30799
agree 30781
worked 30777
lessons 30753
tasks 30713
draw 30711
contains 30686
##fa 30681
socio 30668
##ries 30667
refer 30659
spoke 30653
obtain 30651
憂 30643
candidates 30632
mental 30629
welfare 30622
##ju 30609
diseases 30605
faced 30599
trying 30591
observed 30555
interpretation 30536
offered 30536
database 30473
recorded 30465
otherwise 30458
##gration 30440
thematic 30432
擺 30421
##sc 30420
italy 30410
末 30392
骨 30386
owned 30374
ireland 30351
牆 30317
giving 30311
expenditures 30296
completion 30285
er 30259
talk 30255
vehicles 30230
##ca 30215
highlighted 30207
habitat 30203
comes 30198
search 30197
seems 30176
complaints 30150
浪 30148
wall 30137
##ka 30131
##ya 30074
芬 30054
##so 30046
割 30043
powers 30034
visits 29991
amendment 29978
release 29977
扣 29964
disability 29956
##ah 29954
##ha 29942
moment 29936
thirty 29882
entered 29877
outcomes 29833
彼 29825
technological 29802
prohibition 29792
appeals 29783
辭 29774
偶 29770
black 29766
recognize 29765
萄 29724
jobs 29715
brief 29687
anything 29682
蛋 29679
diplomatic 29672
hear 29635
played 29628
sought 29622
sites 29613
presentation 29610
teachers 29595
nation 29590
biological 29589
station 29585
捷 29576
梅 29575
religion 29572
minority 29494
engage 29489
outstanding 29458
careful 29453
##uri 29448
everything 29443
oral 29434
begin 29425
##li 29416
sierra 29415
鏈 29411
preventing 29404
##lita 29400
competent 29399
populations 29371
existence 29368
du 29363
憶 29353
sha 29350
experiences 29316
lu 29305
sale 29266
##res 29243
simple 29236
cycle 29231
globalization 29230
regulatory 29218
spain 29215
凡 29206
chemicals 29204
namely 29200
investments 29188
##si 29180
sum 29176
door 29152
categories 29134
territorial 29134
嬰 29132
flow 29109
leone 29092
tourism 29091
悲 29084
failed 29070
switzerland 29056
expansion 29054
stay 29037
strength 29027
racism 29018
favour 29005
譴 29003
##ler 29001
allegations 29000
臉 28994
##ine 28979
伐 28977
supports 28974
諒 28967
obtained 28925
窗 28924
燒 28916
##uni 28915
##ist 28903
statute 28898
鎖 28875
extend 28838
dec 28833
seeking 28829
considers 28809
comply 28805
continuous 28770
cold 28765
burundi 28758
element 28757
##ni 28749
mod 28720
verification 28720
reproductive 28715
緬 28707
restrictions 28676
funded 28670
granted 28655
鞏 28644
##line 28615
largest 28596
虛 28589
鋼 28576
zealand 28546
cha 28541
blood 28524
臘 28488
赤 28487
supplies 28474
##art 28426
翰 28425
emissions 28416
俱 28413
刊 28412
teams 28406
龍 28405
邏 28400
謂 28390
selected 28377
ch 28367
enter 28364
dissemination 28354
someone 28353
nationality 28352
losses 28344
dispute 28333
concluding 28326
amendments 28312
剩 28311
##tic 28307
auditor 28307
韋 28279
decide 28266
恰 28260
clean 28257
index 28257
availability 28250
payments 28242
甸 28242
proportion 28239
##ped 28233
supreme 28203
instance 28187
considerable 28185
##mb 28182
advantage 28179
advanced 28147
役 28140
facing 28126
norms 28122
theory 28121
fe 28113
迷 28113
character 28111
gaza 28093
葉 28080
trend 28055
忙 27956
theme 27945
delay 27927
贈 27921
numbers 27907
跳 27878
formulation 27863
facility 27839
泊 27779
writing 27776
burden 27774
##fur 27764
haiti 27737
##ip 27731
bosnia 27727
identity 27721
willing 27711
happy 27681
netherlands 27674
functioning 27661
##bar 27646
check 27595
attack 27582
argentina 27578
菜 27571
nine 27569
buy 27566
rat 27557
opened 27531
##ibe 27495
geographical 27494
##pe 27437
rich 27437
##gen 27418
online 27412
speakers 27381
topic 27381
killed 27378
names 27368
characteristics 27358
latest 27349
sovereignty 27330
maintained 27328
##au 27326
advancement 27321
expenses 27303
軌 27288
欣 27278
##len 27270
os 27267
齊 27266
quarter 27262
潤 27257
##q 27253
norway 27231
river 27218
linked 27213
##mis 27203
grant 27189
british 27171
duties 27152
inside 27148
胸 27146
specified 27144
transportation 27128
乘 27128
##ila 27111
##ou 27111
extensive 27105
engagement 27100
differences 27090
carrying 27088
speed 27086
exist 27076
li 27048
##ru 27043
frequent 26991
##urse 26953
decrease 26948
coverage 26947
hot 26928
center 26923
爸 26917
夏 26904
heavy 26901
pc 26892
豁 26877
##ian 26875
溝 26860
姐 26857
older 26856
俗 26840
empowerment 26830
unable 26814
trading 26803
built 26796
amounts 26786
birth 26777
bio 26776
master 26773
囚 26767
田 26757
commissions 26744
entity 26726
numerous 26708
realization 26699
correct 26695
sun 26674
anal 26669
##quent 26667
announced 26657
transitional 26647
##iti 26633
encouraging 26605
desert 26596
燈 26596
mon 26591
combined 26585
dead 26583
showed 26578
##tra 26569
va 26566
contents 26561
##el 26552
pointed 26547
generation 26538
unique 26521
bearing 26498
秩 26485
抽 26483
corporate 26445
transit 26441
decent 26434
examples 26426
containing 26412
##quitable 26411
maintaining 26409
伍 26405
巧 26405
fi 26390
##ati 26389
publications 26381
reasonable 26372
##bility 26347
located 26341
##pi 26338
targeted 26324
cyprus 26319
migrant 26319
偷 26311
unemployment 26309
澄 26263
糾 26257
ownership 26243
answer 26235
##em 26220
disasters 26218
euro 26217
卷 26213
aims 26183
粉 26183
maximum 26152
eco 26131
asylum 26130
fine 26130
幼 26130
minutes 26127
sustained 26118
彩 26118
protected 26105
demo 26101
拍 26082
yugoslavia 26068
ld 26063
醉 26061
town 26054
worldwide 26046
碎 26039
reservations 26031
mortality 26023
preliminary 26007
ideas 26003
flows 25983
investigate 25980
ni 25975
孟 25970
hour 25953
sentence 25953
surface 25938
choice 25931
simply 25931
convened 25930
province 25921
nevertheless 25918
perhaps 25917
coordinating 25910
drafting 25897
amended 25888
sl 25884
糖 25866
##ul 25843
ph 25832
譽 25816
bi 25798
md 25778
adaptation 25771
癌 25767
##if 25760
mines 25738
hospital 25732
##zing 25726
truth 25721
旱 25694
##ors 25679
fixed 25663
getting 25629
op 25606
receiving 25602
satisfaction 25590
妥 25573
##tre 25572
##ep 25568
complement 25559
send 25552
贏 25552
搜 25497
fcc 25490
delivered 25487
濃 25484
孤 25456
allowance 25455
designated 25447
updated 25443
troops 25439
##ns 25425
fish 25413
篇 25413
reconstruction 25408
productive 25405
engineering 25388
昨 25384
confirmed 25381
猶 25371
旁 25357
##ated 25356
achievements 25348
崗 25342
substances 25337
enjoyment 25328
欠 25303
recognizes 25300
map 25280
喝 25255
extension 25253
sb 25244
lebanese 25243
谷 25239
forth 25238
wanted 25237
protecting 25232
pursue 25218
宏 25218
enabling 25215
##end 25207
structural 25206
http 25204
plant 25203
arising 25181
endorsed 25162
herzegovina 25159
britain 25144
branch 25137
selection 25132
胎 25119
managers 25118
nigeria 25101
柱 25094
鏡 25084
partner 25073
resolve 25054
offence 25053
expresses 25044
蟲 25042
wishes 25028
spanish 25027
##ici 25019
vision 25001
college 25000
liability 24979
##ser 24976
怪 24953
rose 24933
乳 24928
盜 24925
changing 24920
兄 24913
##mar 24912
姓 24912
satellite 24906
gap 24900
柬 24894
pollution 24884
race 24880
湖 24876
寄 24870
attend 24868
奶 24848
fast 24844
subcommittee 24813
monday 24805
sensitive 24792
##ating 24778
san 24768
figures 24761
colombia 24760
丈 24751
assessed 24750
voice 24745
ukraine 24735
br 24724
##no 24722
option 24717
et 24716
constructive 24695
cote 24691
gdp 24687
location 24682
penalty 24680
fear 24677
timor 24677
##ad 24664
multiple 24663
tried 24658
constant 24655
bar 24653
boy 24650
thousands 24644
saying 24642
publication 24641
appear 24637
##vi 24615
呈 24602
stations 24597
uganda 24597
initiated 24594
manage 24590
ratified 24564
gold 24562
鑽 24557
佛 24552
estimate 24550
kept 24532
finding 24519
returned 24516
艱 24513
sustainability 24505
##ious 24495
ocean 24491
敬 24490
changed 24482
ship 24481
ji 24480
preparing 24476
慶 24469
藍 24466
latter 24460
exports 24455
ra 24451
remote 24444
vii 24441
xi 24434
facilitating 24422
##oc 24407
difference 24396
lines 24381
primarily 24378
king 24361
ice 24359
join 24344
pe 24343
seem 24337
ethiopia 24323
##ub 24297
sweden 24292
attended 24269
喬 24264
##ua 24261
bis 24255
seminar 24254
schedule 24247
##tal 24227
mob 24223
pilot 24195
##cl 24189
helped 24187
prisoners 24156
淫 24148
blue 24120
user 24120
doesn 24112
troop 24110
##dic 24108
male 24108
contingent 24101
television 24097
##tive 24064
ba 24025
sides 24025
##para 24019
accused 24019
papers 24019
contain 23998
friday 23977
扶 23977
historical 23976
舍 23969
埔 23965
believes 23957
菌 23950
game 23948
##ac 23943
transparent 23917
vehicle 23912
##ons 23887
worth 23855
pending 23851
##ios 23842
盲 23833
純 23826
beautiful 23816
conservation 23814
conventional 23802
disputes 23792
innovation 23792
occurred 23789
notice 23786
affecting 23764
resident 23755
iraqi 23752
innovative 23737
patients 23730
巡 23721
茨 23717
impacts 23715
invites 23710
杯 23702
husband 23700
examine 23692
##op 23681
incidents 23667
雪 23658
reserve 23650
spread 23647
攝 23637
cooperative 23636
戴 23616
##it 23598
##dition 23572
transactions 23569
represent 23567
伸 23566
binding 23549
controls 23536
unesco 23528
card 23525
arrest 23507
fell 23502
judiciary 23498
adverse 23496
tr 23496
##cit 23489
洪 23485
becoming 23484
thereby 23482
繞 23475
寨 23469
variety 23463
##iga 23462
john 23453
weak 23448
neither 23420
morocco 23382
books 23365
machine 23365
legitimate 23322
##do 23312
##uc 23309
forests 23306
expect 23275
cm 23268
gives 23265
bear 23261
##bit 23249
縣 23245
improvements 23239
music 23238
##led 23235
increases 23225
刪 23224
image 23212
investors 23166
passed 23163
savings 23142
dangerous 23127
##ability 23107
##of 23097
趕 23096
suffering 23095
arbitration 23093
hoped 23083
popular 23079
released 23074
sanitation 23048
testing 23024
蓄 23021
thailand 23019
expand 23018
yourself 23005
##ital 23003
manual 22992
##ib 22991
##ei 22981
paris 22981
deco 22971
mobile 22969
抓 22962
##cing 22957
represents 22954
london 22951
obstacles 22946
春 22942
eritrea 22940
message 22927
undertaking 22912
ones 22907
莊 22899
recommend 22896
##rat 22888
penal 22884
charges 22870
meaning 22869
allocated 22849
village 22847
##out 22846
monetary 22837
宮 22833
scheduled 22822
苯 22821
believed 22815
reviews 22810
cs 22805
train 22783
remember 22778
ju 22774
formed 22770
expanded 22769
sir 22769
asset 22756
solidarity 22753
kenya 22749
teacher 22739
姦 22731
equity 22706
write 22687
limits 22669
intention 22668
intellectual 22655
identifying 22629
跌 22625
za 22623
drawn 22622
boys 22618
accord 22616
coordinate 22616
prompt 22614
辛 22585
##bo 22579
thanks 22567
##va 22557
cluster 22552
噸 22548
turned 22546
born 22514
azerbaijan 22484
sports 22482
library 22479
leaving 22477
perform 22477
reply 22443
version 22430
##fc 22423
academic 22422
supervision 22397
choose 22382
掛 22382
abroad 22381
祖 22343
attempt 22324
advocacy 22308
video 22303
陰 22300
reservation 22291
fore 22287
奮 22284
currency 22279
comment 22256
tu 22246
fiscal 22236
associations 22230
disabled 22220
tel 22214
protocols 22206
letters 22194
mal 22185
煩 22172
thinking 22171
declared 22161
maritime 22158
examined 22149
竟 22129
watch 22122
##lock 22121
李 22119
attached 22105
##mit 22102
constraints 22065
唱 22065
russia 22055
stable 22031
break 22015
links 21987
file 21984
睛 21984
添 21983
賀 21979
qu 21974
bed 21973
myanmar 21961
pass 21944
demands 21935
mere 21935
update 21924
佩 21921
ultimate 21916
奴 21913
bringing 21909
##ort 21908
牧 21899
volume 21894
focal 21857
峰 21853
狗 21842
reality 21840
##ms 21839
logistics 21837
##nts 21828
##ft 21824
launch 21797
sm 21764
weather 21762
騷 21762
##per 21759
eat 21751
渠 21750
欺 21748
mining 21746
deliver 21733
adjustment 21727
chile 21726
story 21699
composition 21651
talks 21647
##eno 21633
facts 21631
偉 21630
philippines 21624
soldiers 21620
grave 21610
guarantees 21608
湯 21607
嫌 21588
##ible 21586
##ja 21586
weight 21580
employed 21578
capabilities 21574
##ph 21569
violated 21553
jerusalem 21550
carbon 21549
digital 21536
repeated 21534
permit 21518
薄 21507
valuable 21506
reading 21497
冒 21496
acceptance 21490
buildings 21478
##cap 21475
凍 21474
鼠 21454
pan 21449
hit 21440
managed 21436
ahead 21433
橋 21429
##ise 21427
georgia 21417
purchase 21411
##lor 21395
ct 21381
##gs 21374
衰 21371
ratio 21368
##xi 21367
probably 21364
顛 21349
##inatory 21337
moving 21326
lia 21323
arbitrary 21317
##act 21299
running 21295
games 21293
covering 21288
械 21286
##our 21274
served 21274
弄 21266
塑 21262
##ging 21261
肥 21243
dignity 21241
joined 21240
氟 21240
spent 21239
耐 21179
##ide 21154
##ina 21152
port 21126
斥 21113
募 21104
explore 21103
arrested 21100
gradual 21099
warning 21098
reiterated 21075
path 21063
looks 21051
袋 21050
methodology 21040
池 21040
appears 21030
慎 21024
disappearance 21021
starting 21019
none 21014
recalled 20990
offers 20984
algeria 20983
匹 20973
manager 20963
utilization 20944
仔 20935
bit 20913
saudi 20913
饑 20891
膠 20889
##ica 20883
via 20881
accurate 20876
harm 20866
roles 20862
storage 20857
societies 20845
tuesday 20837
戀 20837
larger 20827
double 20819
trained 20811
programming 20810
notification 20795
奉 20791
sets 20780
##fication 20762
explained 20743
ngo 20741
career 20705
披 20694
austria 20690
stocks 20681
##dis 20678
track 20674
ap 20658
helping 20648
##table 20645
easily 20645
dark 20644
##tor 20625
decades 20623
presidential 20613
rational 20606
features 20595
angola 20594
##economic 20588
ja 20569
student 20569
鳥 20569
decline 20567
##ring 20559
偵 20555
餓 20543
刷 20540
belief 20536
inflation 20534
commerce 20525
##gated 20523
##icia 20522
##bilities 20515
reaching 20511
perpetrators 20508
save 20494
techniques 20494
treated 20490
thursday 20481
distributed 20478
intelligence 20476
geo 20472
obvious 20470
industries 20467
cell 20466
knew 20460
膜 20455
anyone 20454
introduce 20449
膚 20444
wind 20437
尺 20417
##ke 20410
##cies 20407
malaysia 20403
supplement 20397
register 20395
indicates 20392
hi 20390
campaigns 20376
contrary 20370
secret 20369
assisting 20367
sole 20345
##ho 20344
authors 20341
overcome 20331
敢 20321
chance 20306
segment 20302
潮 20302
sections 20299
humanity 20278
assurance 20272
汞 20272
bu 20268
insufficient 20259
##sco 20254
seminars 20254
vocational 20240
煤 20221
乍 20203
##fr 20199
##im 20189
bangladesh 20189
jordan 20186
experienced 20175
wednesday 20167
勇 20163
胡 20154
macro 20141
##ss 20140
磨 20133
telephone 20132
command 20124
廉 20119
disposal 20110
##et 20092
seemed 20074
緒 20048
lo 20043
broader 20041
salary 20036
commodity 20035
駁 20034
fighting 20027
parliamentary 20026
prefer 20026
overview 20006
behaviour 20001
suffered 20001
speech 19993
serving 19992
acquisition 19960
output 19944
summer 19931
imprisonment 19914
unity 19901
faith 19898
periods 19896
袖 19894
corresponding 19887
炮 19883
arts 19856
叛 19847
goes 19845
綁 19843
grow 19840
cutting 19816
ministries 19813
stresses 19808
si 19795
transmitted 19780
mandated 19777
reflects 19770
belarus 19768
immigration 19765
詩 19751
welcoming 19749
te 19745
prostitution 19739
award 19734
< 19719
pu 19717
遙 19713
else 19709
eye 19707
intervention 19705
rising 19703
nairobi 19697
mobilization 19695
valid 19685
consumer 19670
judgement 19668
尾 19664
controlled 19661
perfect 19659
##yse 19643
焦 19628
ta 19624
mali 19621
皇 19619
complaint 19609
contra 19605
##lon 19598
excel 19575
凝 19551
yesterday 19550
doubt 19549
competence 19546
household 19544
vulnerability 19542
駛 19542
budgets 19541
demonstrated 19538
傭 19531
objects 19528
soil 19528
involve 19521
assigned 19516
depth 19516
marginal 19513
guatemala 19501
inhuman 19499
漫 19494
enemy 19485
sad 19483
film 19463
locations 19463
functional 19455
臭 19455
gain 19447
farmers 19445
opposition 19443
紛 19442
##pet 19438
transferred 19438
##ages 19423
##red 19417
maternal 19413
witnesses 19411
solid 19408
灰 19403
peru 19402
mrs 19401
壁 19401
##om 19399
exclusive 19399
插 19396
陪 19391
攜 19381
coe 19378
##ir 19371
##firmed 19370
##rd 19370
娜 19354
##lu 19340
gaps 19331
##grad 19330
孔 19329
anniversary 19305
飾 19304
studied 19301
tenth 19297
駕 19295
absolute 19280
牽 19279
performed 19278
evaluate 19276
automatic 19272
##rations 19269
dynamic 19266
磁 19266
gone 19262
depend 19253
profit 19244
洞 19234
gen 19232
resumed 19210
##be 19209
focusing 19207
恨 19207
##ag 19198
##tory 19195
憑 19187
orders 19174
outlined 19165
contracting 19160
pattern 19158
旗 19149
topics 19135
healthy 19133
##aged 19132
execution 19131
models 19125
宿 19125
##ap 19121
sri 19101
drop 19094
singapore 19080
oriented 19064
replace 19048
濕 19035
subjected 19034
逆 19025
balanced 19021
premises 19020
hearing 19015
脈 18993
temperature 18983
wider 18981
doctor 18979
##up 18977
homes 18968
##the 18961
##hr 18956
ya 18955
format 18943
##ev 18941
croatia 18939
japanese 18938
pleased 18924
undermine 18915
nepal 18904
revenue 18901
suitable 18898
die 18896
exact 18884
partial 18876
preparations 18875
box 18865
inventory 18846
抑 18846
liaison 18845
狂 18841
operate 18836
directed 18816
finland 18800
enforced 18789
厚 18789
german 18751
##po 18745
loans 18740
detained 18724
liberal 18718
bound 18713
rd 18709
widespread 18693
colonial 18691
雄 18682
rape 18671
vol 18670
productivity 18668
deposit 18663
outreach 18651
壤 18640
##tlement 18639
##ten 18630
prohibited 18628
岩 18628
spending 18627
mercury 18626
gu 18612
decree 18595
phone 18575
井 18572
霍 18557
manufacturing 18543
ai 18541
labor 18539
##pol 18522
invitation 18518
fishing 18500
ham 18495
managing 18494
substance 18468
hk 18464
搖 18461
羊 18459
妹 18438
淡 18431
蕩 18425
sat 18424
sbs 18420
poly 18415
punish 18409
drive 18397
input 18394
##ko 18393
suggestions 18393
liberty 18392
脂 18390
牢 18379
huge 18375
calling 18369
fr 18365
pa 18363
constitutes 18357
inadequate 18356
length 18354
嚇 18354
cancer 18351
regret 18342
icc 18334
##mp 18333
withdrawal 18314
movements 18311
au 18307
shanghai 18295
danger 18289
##ding 18277
integrate 18272
organ 18265
species 18265
嘴 18262
拆 18259
endeavour 18243
hotel 18224
drawing 18215
regards 18215
dealt 18214
wait 18212
spring 18208
lasting 18192
picture 18181
deployed 18175
壽 18173
##io 18170
卜 18169
adviser 18168
presidency 18168
relevance 18158
reliable 18157
cambodia 18153
nam 18152
greatest 18143
died 18142
mark 18142
moral 18128
charged 18114
removal 18107
syn 18104
ecuador 18098
詐 18097
zones 18094
fisheries 18092
##tia 18090
炎 18081
##zed 18077
nationals 18076
hair 18067
宇 18067
嘗 18060
interventions 18026
雲 18022
cruel 18013
tomorrow 18010
conducting 18008
title 18003
allows 17990
camp 17989
medicine 17983
barriers 17982
businesses 17977
promoted 17977
liquid 17966
橫 17965
wished 17961
##ana 17949
voting 17942
##ration 17941
誕 17941
afghan 17933
journal 17931
heat 17923
漂 17907
breach 17906
package 17904
陶 17899
visited 17898
incident 17884
仿 17882
firms 17881
leader 17880
observation 17874
泥 17874
##tie 17868
typical 17861
airspace 17859
##fu 17853
雞 17853
堆 17851
poland 17847
win 17843
integral 17838
##iss 17837
sudden 17833
糟 17812
tree 17810
residence 17796
genocide 17783
explain 17777
recalls 17764
dry 17758
consolidated 17750
sleep 17740
wealth 17735
moved 17734
steel 17731
##ace 17725
revision 17718
lawyers 17715
organize 17713
劫 17710
copies 17707
po 17700
粒 17698
married 17696
##pp 17690
realize 17686
convinced 17677
customers 17676
dollar 17676
戒 17668
##ncies 17659
turkish 17658
playing 17657
attain 17653
sponsors 17648
abs 17643
camps 17642
枚 17641
y 17639
explicit 17618
foot 17618
糊 17616
opt 17614
##hi 17605
patterns 17604
##uance 17597
residents 17597
walk 17586
eventual 17581
interaction 17577
equivalent 17575
搬 17567
becomes 17560
麵 17543
fruit 17527
square 17525
fill 17522
怒 17516
ep 17509
municipal 17480
trip 17480
kinds 17477
##fe 17463
toward 17461
暖 17454
accessible 17452
gi 17421
莉 17416
##and 17407
##ning 17395
搞 17395
##mark 17376
plants 17364
crises 17349
gains 17346
iss 17341
programs 17340
##ani 17339
盾 17331
acknowledged 17326
wage 17323
amend 17322
彌 17320
諧 17319
##tain 17317
emphasizes 17307
accession 17306
##ulate 17293
dedicated 17288
warm 17282
agents 17276
translation 17254
aged 17249
##land 17243
fees 17232
banking 17218
posed 17217
躍 17210
adopting 17206
czech 17201
professionals 17197
fit 17171
myself 17171
poll 17162
漏 17162
applying 17161
dependent 17149
ass 17148
laid 17145
unfortunate 17144
psychological 17134
##int 17128
certificate 17128
hydro 17119
arrangement 17118
乙 17118
##kh 17115
exploration 17115
belgium 17108
phenomenon 17099
memorandum 17096
舒 17082
degradation 17072
##un 17055
covers 17054
der 17054
supplementary 17044
兑 17041
households 17029
hazardous 17027
commodities 17024
appreciate 17021
laundering 17016
skin 17016
扭 17012
incorporated 17010
miss 16998
縱 16997
##tro 16992
financed 16990
biennial 16989
thorough 16982
duration 16977
kyoto 16977
window 16969
copy 16968
significance 16965
occur 16961
刀 16959
銘 16955
detail 16942
displacement 16941
relationships 16941
separation 16928
formulated 16925
representing 16913
cong 16909
granting 16908
elder 16904
鹽 16888
stood 16884
devices 16881
懂 16876
appeared 16875
懼 16869
繪 16866
qualified 16860
bench 16859
machinery 16859
considerations 16848
suggest 16848
marked 16841
hall 16836
flight 16833
stages 16825
procedural 16820
搶 16813
##sit 16812
violent 16807
explanation 16806
style 16803
viii 16800
desire 16793
苗 16792
##fo 16782
wit 16782
bus 16780
circulated 16775
conclude 16775
overseas 16769
whatever 16765
##fer 16760
brother 16760
##der 16745
allowing 16745
膨 16729
##ants 16713
airport 16712
flexible 16712
isn 16712
excessive 16707
borders 16705
maybe 16705
biodiversity 16703
lay 16703
millions 16700
##rri 16698
輻 16691
indirect 16687
apparent 16685
坪 16681
negotiation 16676
rejected 16664
mode 16642
##rm 16638
珍 16625
urge 16623
approve 16619
forums 16612
tv 16607
projected 16606
stream 16604
properties 16590
min 16587
progressive 16577
dream 16575
exception 16555
costa 16549
啡 16545
composed 16542
memory 16541
customer 16539
ordinary 16527
##sas 16526
ib 16526
serbia 16521
勃 16521
olympic 16519
injury 16510
devoted 16509
exposure 16501
greece 16500
missing 16497
determining 16493
proved 16491
professor 16490
##ress 16489
##su 16484
outputs 16476
顆 16468
lanka 16463
flexibility 16461
##dget 16457
游 16453
##zation 16439
sal 16439
assisted 16438
star 16438
##ative 16433
feeling 16427
deaths 16426
autonomous 16416
fat 16414
##tions 16405
aviation 16404
##ual 16397
demonstrate 16389
擠 16389
genuine 16382
remove 16373
hundred 16365
remedy 16363
powerful 16358
##que 16348
drew 16347
咖 16330
guaranteed 16321
claimed 16303
par 16296
sovereign 16292
sen 16283
爵 16273
denmark 16258
spend 16253
瓶 16246
coastal 16244
忠 16241
##can 16240
rome 16230
粗 16229
indian 16228
refers 16226
顏 16224
契 16222
marketing 16217
scientists 16201
venezuela 16201
acceptable 16199
遜 16190
##ure 16189
begun 16189
籤 16188
##za 16185
taiwan 16179
fresh 16168
sell 16164
噴 16162
ca 16157
transmit 16139
##ang 16136
confidential 16134
##ex 16119
##val 16112
碰 16099
tolerance 16094
happened 16080
鞋 16078
volunteers 16073
pain 16067
sorry 16064
drought 16063
chad 16060
expanding 16057
unlike 16046
concert 16045
賈 16043
super 16041
deter 16033
adjustments 16030
consolidation 16019
senegal 16018
persistent 16010
##arat 16004
##qual 16002
##ora 15996
color 15991
grateful 15988
formation 15985
heritage 15969
lose 15967
vast 15957
transfers 15952
wants 15949
excellent 15938
occasion 15936
rare 15927
impossible 15925
##zi 15924
tests 15923
箭 15915
slight 15886
registry 15884
##rea 15882
tanzania 15872
氛 15859
reserves 15855
understood 15855
consultants 15854
count 15853
washington 15851
submissions 15850
provinces 15849
journalists 15842
##he 15831
##gg 15813
圈 15811
hunger 15804
virtual 15804
transmission 15802
park 15801
aligned 15795
纖 15748
league 15731
listen 15728
ts 15726
誘 15720
baby 15704
cells 15703
root 15702
##dicate 15689
securities 15688
牲 15688
sw 15680
澤 15674
palestinians 15669
##phobia 15667
commit 15667
##ida 15665
nl 15662
##lia 15655
tri 15643
chi 15639
##rit 15634
##sal 15632
talking 15624
forecast 15619
##load 15600
requesting 15599
aggression 15598
臟 15596
brain 15595
leg 15594
瘧 15593
handling 15588
electricity 15585
arise 15583
signature 15576
##ifying 15572
騙 15568
researchers 15567
ro 15563
roma 15562
fl 15552
commended 15550
sect 15549
慈 15539
expressing 15529
dog 15526
belonging 15523
ri 15514
cap 15511
presents 15508
欄 15503
je 15502
neighbouring 15498
livelihood 15492
劣 15485
chain 15481
泡 15474
surveys 15472
provincial 15461
##rel 15455
channel 15452
requiring 15431
cal 15429
renewable 15412
lists 15399
隸 15399
deadline 15394
collect 15389
universities 15388
regardless 15387
##ot 15385
reviewing 15383
grants 15381
##iri 15377
schemes 15374
sick 15372
# 15370
organic 15365
sharp 15361
貌 15359
subjects 15357
繩 15345
heading 15335
custody 15323
arabia 15315
transaction 15311
##ments 15306
finds 15305
proceed 15305
kazakhstan 15304
animals 15301
勘 15289
producing 15282
##bly 15277
employers 15276
ordinance 15271
sustain 15266
aspect 15263
蔘 15263
lands 15252
##rator 15244
solve 15235
bridge 15233
##ls 15232
closer 15232
precise 15229
resistance 15229
江 15219
capable 15218
ammunition 15215
worse 15205
distance 15199
defense 15196
define 15195
揭 15195
explosive 15194
lived 15193
soft 15183
seeks 15165
rio 15157
shift 15145
coal 15139
entering 15135
閃 15135
膽 15130
##riation 15118
shares 15114
##graph 15107
meanwhile 15103
ethics 15100
mountain 15089
detainees 15083
driven 15071
茶 15062
pledge 15056
妙 15052
animal 15042
莎 15036
combination 15023
厲 15019
捲 15005
bush 15003
tunisia 15000
##tu 14994
comparison 14990
ghana 14987
agent 14986
bottom 14970
collected 14969
hence 14957
撞 14951
nutrition 14934
store 14934
negotiating 14933
fed 14929
##rai 14927
arrived 14925
##sen 14916
denied 14915
##ee 14912
generated 14908
##bi 14907
##cer 14907
晤 14900
rain 14898
description 14896
厭 14892
##ction 14889
closure 14886
##nc 14884
le 14884
ann 14880
suffer 14871
licence 14869
portugal 14866
冬 14866
sort 14857
receipt 14849
uruguay 14849
豪 14844
citizen 14843
tables 14831
##ov 14828
prospects 14826
armenia 14814
stronger 14810
stake 14808
浮 14774
offering 14771
metal 14769
invite 14765
譜 14765
mothers 14764
alliance 14746
waiting 14741
undo 14740
david 14739
td 14729
delays 14728
unto 14726
稍 14725
##vable 14719
biggest 14715
娘 14713
exchanges 14710
##ime 14705
矛 14701
prove 14700
feet 14694
hopes 14688
冠 14685
interior 14665
applies 14663
signing 14663
county 14661
frame 14660
meant 14660
##ert 14655
doha 14642
customary 14639
season 14636
piece 14628
##ess 14626
##ys 14624
##hu 14609
analytical 14609
##rine 14608
##ably 14600
attempts 14590
sar 14590
prejudice 14574
##ham 14566
capability 14566
帛 14566
accident 14564
trees 14560
懸 14555
drinking 14553
hu 14552
houses 14551
rica 14549
generate 14543
##ede 14541
dj 14540
prom 14533
秀 14532
爐 14521
inquiry 14518
thousand 14515
assessing 14507
administering 14506
##eration 14505
sold 14505
pol 14500
responding 14497
jam 14495
salvador 14493
魔 14490
##ira 14487
comparative 14480
alternatives 14479
filed 14479
糕 14479
frequency 14475
##od 14467
atmosphere 14466
clarify 14466
discharge 14463
device 14462
investigated 14461
shape 14460
enhancement 14453
flag 14439
renewed 14439
malaria 14438
harmful 14437
qatar 14421
##pile 14414
derived 14414
transformation 14404
instances 14402
lies 14402
motion 14402
rc 14394
contractual 14359
##jo 14358
##ini 14355
宅 14344
organizing 14342
harassment 14334
vacancy 14331
##we 14326
literacy 14325
resolved 14325
ku 14319
unlawful 14317
撫 14313
ancient 14312
depends 14307
driving 14283
speaker 14278
quota 14271
塗 14270
parallel 14264
responded 14264
prose 14256
exists 14254
##ple 14249
##ii 14248
wi 14246
sit 14245
yemen 14243
棒 14243
ending 14237
##lan 14229
ur 14226
##fl 14218
##naire 14211
relate 14196
deemed 14193
盈 14187
smaller 14183
atomic 14181
det 14181
尖 14178
conjunction 14176
dil 14175
##tine 14171
col 14168
吹 14158
destroyed 14155
鋪 14146
instructions 14145
compulsory 14140
struggle 14136
采 14136
棉 14131
wave 14130
tea 14127
pace 14125
classification 14124
accountable 14122
warrant 14116
肌 14115
libyan 14114
transmitting 14105
suggests 14103
bro 14088
restricted 14088
tom 14084
nice 14072
citizenship 14071
sky 14068
歉 14068
clinical 14065
##den 14062
consists 14057
灌 14057
wood 14053
strip 14048
filled 14043
regarded 14043
forthcoming 14040
parameters 14039
dimension 14036
restructuring 14020
providers 14016
beings 14013
obama 14009
櫃 14003
interview 13998
##by 13997
guiding 13994
exclusion 13993
replaced 13993
mention 13983
afternoon 13970
##urs 13967
smooth 13961
defenders 13960
##oca 13959
facilitated 13958
gonna 13946
consumers 13944
seized 13938
moon 13933
advances 13929
evening 13929
clearance 13928
impose 13923
credentials 13922
match 13919
##ping 13886
divers 13878
uniform 13873
accelerate 13870
necessity 13866
drink 13864
loan 13852
瑟 13852
reflecting 13844
vis 13844
proof 13839
realized 13839
client 13831
juvenile 13831
疊 13828
##minate 13821
opinions 13813
tend 13810
##ff 13807
advantages 13807
detection 13801
##sau 13793
##ese 13791
##ue 13788
expectations 13778
glass 13776
amounted 13771
晶 13768
dimensions 13760
uk 13760
nicaragua 13758
closing 13754
anticipated 13752
pv 13752
##oration 13747
concepts 13740
plays 13740
meaningful 13739
yuan 13739
腿 13737
continent 13735
eligible 13733
underlying 13718
ru 13713
falling 13705
contacts 13704
呆 13700
##nce 13694
lawyer 13694
cameroon 13693
溶 13690
fraud 13689
##rol 13687
sport 13681
梯 13679
pertaining 13674
##qua 13673
romania 13667
limitations 13649
ti 13646
##cp 13631
measurement 13631
objection 13629
guided 13626
incentives 13625
terrorists 13614
unions 13606
electric 13605
##sion 13602
daughter 13589
certification 13582
spouse 13580
incurred 13576
##rti 13574
催 13572
coherent 13563
黏 13560
famous 13556
##vent 13551
pursued 13548
mm 13537
whenever 13536
疲 13533
divided 13531
##rop 13528
渴 13526
竭 13517
couple 13515
閒 13513
distinction 13510
##ren 13508
accompanied 13497
adapt 13494
柔 13485
貓 13484
軸 13484
accommodation 13483
奏 13483
forget 13481
interactive 13477
ozone 13472
bolivia 13470
evident 13458
##dit 13454
introducing 13448
arm 13443
inequality 13440
硫 13434
adults 13433
##sable 13428
##tors 13412
church 13411
happen 13411
orientation 13409
丟 13407
mediation 13405
ear 13394
ed 13394
##istic 13387
##vers 13385
intra 13384
adult 13382
##rco 13371
operative 13356
difficulty 13354
##ki 13346
mandatory 13342
inputs 13341
deficit 13336
拓 13336
enforce 13335
indicator 13332
珠 13330
notably 13327
猛 13327
removed 13325
constituted 13324
refused 13321
apart 13319
grade 13317
putting 13309
##sti 13299
servicing 13298
intensive 13296
saint 13294
signal 13274
騎 13262
injured 13260
abd 13258
acquired 13243
晨 13239
尿 13234
##yl 13229
respected 13228
kill 13227
twice 13222
shop 13219
pri 13207
dates 13193
replies 13188
ordered 13176
mauritius 13170
##les 13164
ideal 13164
flu 13161
incorporate 13159
happiness 13150
翼 13147
##ji 13139
consult 13135
trouble 13132
che 13129
pool 13119
肺 13114
politics 13112
verbal 13109
continuation 13105
quantity 13098
observe 13096
埋 13088
connected 13075
pregnancy 13075
corporation 13071
feature 13068
remarks 13062
aw 13055
dc 13052
truly 13048
ran 13042
pp 13039
prisons 13030
references 13026
acid 13023
wear 13022
basel 13019
involves 13010
clothes 13009
斤 13006
whereas 12989
##des 12987
votes 12987
勁 12974
census 12973
replacement 12967
cultures 12966
捍 12965
disclosure 12958
倉 12958
紋 12954
rough 12953
##lar 12943
##isi 12938
偽 12929
##sil 12928
##ening 12916
exceptional 12914
texts 12912
propose 12910
##pad 12906
辨 12905
##dm 12902
gained 12900
掩 12898
ami 12887
clients 12887
撰 12881
mer 12877
americans 12874
suit 12872
patient 12869
sim 12867
##ye 12866
reductions 12864
##cula 12862
emphasize 12856
##yme 12855
酋 12853
reinforce 12851
##lie 12849
organisation 12849
##sat 12844
lest 12840
imports 12838
estate 12833
greek 12828
sister 12827
##quisite 12819
##rre 12814
broken 12808
hungary 12807
##sibility 12800
hospitals 12799
manufacture 12799
showing 12797
饋 12797
interference 12794
fail 12791
knows 12784
怨 12782
iron 12773
minor 12771
mobility 12771
headed 12770
technique 12769
##mine 12766
cease 12764
##ris 12762
abortion 12761
gs 12758
shelter 12753
winter 12751
滯 12750
resort 12743
##mic 12735
somali 12734
handle 12733
ol 12732
killing 12726
select 12725
minute 12721
pregnant 12719
deprived 12704
##sb 12698
pop 12696
stands 12696
罕 12688
afford 12672
##son 12665
attitude 12665
prosperity 12663
zambia 12662
photo 12661
淚 12658
signs 12652
寸 12648
genetic 12647
掘 12646
retirement 12626
赦 12626
oceans 12621
pen 12619
prosecutors 12618
` 12613
tender 12613
##matic 12612
hundreds 12611
permitted 12611
helps 12609
relates 12607
##lining 12597
##pre 12591
sy 12591
prescribed 12586
turning 12580
waters 12580
##ded 12577
娛 12566
ye 12557
mongolia 12552
pi 12552
comprising 12542
jamaica 12542
massive 12540
thereof 12539
telecommunications 12531
##ropriation 12527
闆 12526
seat 12525
referendum 12523
搭 12518
##og 12517
ah 12514
##ber 12513
block 12512
villages 12512
contemporary 12509
##iv 12505
delegates 12498
assume 12496
conscious 12495
lie 12495
##see 12489
invasion 12483
##makers 12481
desk 12467
directors 12466
##igen 12458
##sing 12455
economical 12446
sin 12444
mouth 12440
鬼 12428
coalition 12423
adolescents 12412
chairs 12409
bid 12404
radiation 12399
##ier 12394
viet 12392
##spar 12389
瘤 12381
afraid 12377
##ivity 12374
diverse 12374
豆 12372
interesting 12368
haven 12364
ball 12345
pest 12345
visual 12343
滴 12339
depending 12338
##ution 12337
甘 12319
plus 12318
##wi 12317
##eb 12314
vo 12313
##ife 12309
administrator 12307
##sm 12296
imperative 12295
煽 12293
##ency 12292
directorate 12290
肩 12289
璃 12285
themes 12280
survival 12271
false 12269
authorization 12266
uzbekistan 12266
earthquake 12265
occupational 12261
montreal 12260
慰 12260
##hip 12253
secured 12253
ke 12240
den 12239
mac 12233
zero 12229
aba 12226
profile 12216
employee 12215
salaries 12212
腫 12209
leaves 12203
necessarily 12194
崇 12192
wages 12191
##ses 12187
architecture 12181
offset 12175
surveillance 12170
occupying 12168
servants 12164
sentenced 12157
proceeds 12148
拋 12148
##tan 12146
挖 12141
##eral 12140
曆 12137
bright 12132
烷 12126
candidate 12125
衷 12125
compete 12124
snow 12122
treat 12122
decreased 12118
##ew 12116
seats 12116
behavior 12114
acknowledge 12112
touch 12109
ruling 12099
parent 12095
垃 12089
elsewhere 12087
##nation 12079
ix 12078
圾 12077
##ncy 12075
##use 12070
dia 12070
paying 12070
expulsion 12064
##ological 12055
ant 12055
preserve 12053
##was 12051
sponsored 12050
pages 12041
yeah 12038
妮 12037
##bs 12028
causing 12028
couldn 12024
abu 12023
郎 12015
##cre 12014
gets 12008
猜 12008
heavily 12005
acquire 11999
calendar 11998
repair 11995
contrast 11993
##pt 11991
roads 11991
trials 11989
attitudes 11986
korean 11983
abuses 11981
club 11976
workplace 11970
##ees 11964
eliminating 11958
describe 11955
鹿 11948
ourselves 11945
consequence 11934
psycho 11931
愉 11930
##mes 11919
##ai 11916
targeting 11915
stone 11909
##aid 11908
##rem 11905
possession 11904
enormous 11901
sam 11900
upper 11899
layer 11889
assumed 11882
surplus 11879
nu 11871
遏 11867
fee 11865
ste 11862
channels 11855
appointments 11853
殼 11850
outline 11849
hind 11848
奠 11844
齒 11842
besides 11841
cis 11841
attendance 11839
##ig 11837
hosted 11836
reaction 11833
generations 11824
conviction 11817
worst 11817
##uta 11810
屍 11808
##ish 11807
acute 11805
classes 11802
禦 11801
fashion 11798
taxes 11795
subsidies 11791
accomplishments 11787
suppliers 11778
burkina 11771
sincere 11771
error 11765
蓬 11763
suspected 11761
##ao 11751
simultaneous 11749
vessels 11748
catch 11746
spare 11741
argument 11739
saving 11738
logistical 11737
##rated 11732
applicant 11731
analyses 11729
revealed 11719
壯 11719
garden 11717
curriculum 11716
discipline 11714
chosen 11710
##som 11708
penalties 11707
虎 11707
focuses 11697
sentences 11695
滾 11690
usd 11688
um 11684
dear 11680
sol 11680
##urity 11678
rock 11674
makers 11668
##making 11656
##media 11652
boost 11652
mixed 11652
employer 11649
pure 11648
獵 11646
faso 11645
##bound 11635
appoint 11635
##bed 11631
pick 11630
restore 11629
steering 11627
arabic 11615
exemption 11615
milk 11613
coffee 11611
envoy 11609
屠 11609
sahara 11607
聰 11607
##sha 11606
wa 11605
declined 11604
wild 11602
measured 11599
emergencies 11597
##ger 11583
幻 11580
腺 11579
瘋 11576
秋 11569
evolution 11566
players 11566
蝕 11566
##ura 11562
##vance 11556
罷 11555
grown 11552
墮 11548
##izes 11543
##ld 11533
auto 11527
compound 11523
乃 11522
volunteer 11519
憤 11518
眠 11508
扮 11507
herself 11506
firearms 11500
recall 11500
tons 11498
##kel 11494
contractor 11494
threatened 11494
smoke 11491
斐 11491
##igate 11489
魂 11489
favourable 11485
corporations 11484
哭 11481
restoration 11472
easier 11469
addresses 11468
grass 11461
zimbabwe 11458
宛 11456
credibility 11454
jo 11450
noise 11449
縫 11446
氏 11441
##sol 11437
rice 11430
孫 11429
fun 11425
tajikistan 11424
呀 11424
##gh 11423
historic 11421
##ship 11418
##che 11412
boss 11412
movie 11412
stopped 11410
哲 11403
stabilization 11394
##met 11392
motor 11387
paul 11385
屏 11383
dramatic 11380
calculated 11370
ceasefire 11370
semi 11366
##ay 11363
叉 11363
quiet 11360
liberation 11359
塵 11353
shot 11346
##ions 11342
shi 11341
cf 11339
twentieth 11336
##lined 11324
limitation 11323
michael 11323
祉 11318
##gi 11314
leads 11311
greenhouse 11307
ships 11305
pal 11304
disciplinary 11301
enabled 11299
faces 11297
municipalities 11294
regimes 11286
錶 11282
##cal 11278
extraordinary 11278
minus 11275
doctors 11262
##ologies 11260
directive 11260
holy 11257
慧 11256
敲 11252
##balance 11246
obtaining 11244
恆 11237
甜 11237
commander 11224
ecosystem 11222
稀 11221
擦 11217
integrating 11213
stipulated 11213
returns 11211
慘 11209
referring 11204
##pan 11203
姑 11203
##rba 11202
腸 11202
specify 11198
suppression 11195
mainland 11193
montenegro 11188
cypriot 11186
hat 11185
aa 11182
suggestion 11181
薦 11180
##ssa 11177
bulgaria 11173
rent 11173
exposed 11170
advisers 11169
divide 11169
minimize 11166
smuggling 11163
cars 11160
dinner 11160
slovenia 11155
夾 11152
##era 11150
thou 11148
epidemic 11147
##eding 11146
mini 11139
associate 11137
revolution 11137
contractors 11130
complementary 11128
##plication 11124
merits 11124
combatants 11112
畜 11108
indicating 11102
refrain 11098
durable 11094
rely 11089
ecological 11087
cards 11083
measuring 11082
promise 11081
chaired 11077
侷 11067
missile 11065
occasions 11065
##rial 11064
algorithm 11063
disadvantaged 11058
invest 11055
mozambique 11052
emphasizing 11050
摧 11048
樑 11048
##mission 11045
哦 11045
pdf 11044
feedback 11037
滲 11037
碑 11034
momentum 11032
##flow 11014
complexity 11014
creative 11012
termination 11011
consolidate 11009
excess 11003
strike 11003
##ula 11001
##holder 11000
awards 11000
exceed 10992
holders 10992
spot 10992
panama 10990
禍 10982
royal 10980
tangible 10974
dual 10966
factory 10966
coast 10963
boat 10960
##ving 10957
likewise 10957
suspension 10954
delayed 10953
guard 10951
uphold 10949
familiar 10947
##dating 10945
files 10942
maternity 10942
嘉 10942
benin 10941
wrote 10940
艘 10938
convicted 10937
##nd 10934
腹 10930
dropped 10926
cargo 10915
laboratory 10913
逾 10913
竊 10912
##ala 10909
offenders 10903
##down 10902
肝 10902
sight 10901
administered 10898
mar 10896
named 10896
僵 10895
cuban 10890
thy 10888
initiate 10887
##sca 10885
##har 10881
##kha 10874
晰 10872
flat 10867
mc 10861
sweet 10861
疏 10860
##active 10858
holds 10857
銅 10857
##sta 10856
gm 10854
cast 10853
坎 10850
experiment 10844
verify 10842
replied 10840
selling 10839
啦 10839
presidents 10838
profound 10829
compromise 10827
seeing 10826
##sis 10822
engine 10822
entrusted 10820
吻 10820
朱 10814
sitting 10802
xv 10799
brings 10798
literature 10798
濾 10793
##ver 10784
collaborative 10781
##je 10775
fewer 10772
昆 10772
presentations 10764
beauty 10763
##ily 10754
泳 10754
sample 10752
breast 10750
seekers 10746
australian 10743
okay 10743
cup 10742
violate 10737
caught 10735
deprivation 10735
flowers 10732
grand 10730
鉅 10728
retain 10726
愈 10725
electrical 10724
messages 10724
##ude 10723
baseline 10722
fired 10719
hc 10719
疇 10712
##power 10705
brown 10705
##vu 10701
characterized 10698
suspended 10689
communicate 10683
satisfied 10681
耕 10680
##ku 10676
log 10672
scene 10672
syria 10672
economics 10671
xvi 10667
##rah 10666
##with 10665
prospect 10661
clock 10660
##hen 10658
monitored 10657
raw 10654
engaging 10651
guy 10647
##fin 10646
concentration 10644
profits 10634
recruited 10627
mi 10618
conversion 10613
撈 10612
roll 10608
emission 10606
pretty 10600
剪 10600
elect 10599
##bc 10595
bag 10595
commonwealth 10594
prevented 10585
delivering 10581
solar 10581
expensive 10579
display 10573
facto 10572
demi 10570
windows 10569
inspectors 10566
serves 10566
emerged 10564
##eded 10561
##par 10560
confident 10550
brand 10549
拔 10548
##mini 10543
attract 10542
豬 10542
assignment 10540
soul 10540
##ical 10536
computers 10534
寒 10532
##ile 10530
##nic 10527
臣 10527
modified 10525
伏 10524
joy 10523
deals 10514
##ulation 10513
wire 10512
convey 10509
song 10509
lend 10506
##stan 10502
##work 10502
wine 10502
##ria 10501
analyzed 10499
prince 10496
##rt 10492
highlight 10490
childhood 10488
ser 10481
asean 10480
boundary 10478
distinct 10477
##ode 10474
##ena 10470
forestry 10468
bought 10466
owners 10463
sai 10461
farm 10459
湧 10458
images 10453
io 10452
feasible 10451
generating 10451
##rn 10450
貪 10449
visiting 10446
resume 10445
blind 10443
fis 10441
誓 10439
narrow 10434
##cute 10433
adding 10426
organisations 10426
##cos 10425
mary 10420
districts 10415
navigation 10415
##nu 10413
wasn 10402
performing 10401
賺 10398
possibly 10397
inhabitants 10391
tackle 10388
adjusted 10384
nc 10384
studying 10383
producers 10377
enjoyed 10376
libya 10375
rescue 10373
strive 10372
##ros 10369
##tric 10368
preservation 10362
椅 10362
番 10360
fan 10354
immunity 10352
ceremony 10350
nap 10347
slovakia 10346
prevalence 10343
粹 10343
maintains 10340
slavery 10340
鈎 10339
##ong 10332
tracking 10330
inherent 10328
pursuit 10326
incidence 10323
plane 10321
routine 10315
洩 10307
satisfactory 10304
adhere 10303
compilation 10303
iranian 10301
lit 10301
reset 10301
aside 10294
credible 10293
handed 10292
deliberate 10287
##cha 10284
confirm 10284
manifestation 10284
murder 10283
鎊 10282
惑 10278
##gies 10275
km 10274
##bat 10270
accounted 10265
thin 10262
experimental 10260
mor 10257
seas 10256
intends 10253
ecosystems 10252
ze 10252
##vic 10248
destination 10246
infant 10241
regrets 10241
push 10239
spite 10238
ev 10237
beneficial 10232
氫 10232
perspectives 10227
pose 10225
##ll 10220
iso 10219
portion 10215
琴 10212
peter 10211
wouldn 10208
straight 10192
retained 10189
canadian 10187
exercises 10186
definitions 10184
sunday 10181
realistic 10180
geographic 10179
minors 10164
串 10164
mineral 10156
惜 10150
eleventh 10149
##idi 10147
portfolio 10147
pursuing 10145
awarded 10144
notwithstanding 10143
durban 10141
pet 10140
munitions 10139
唐 10136
responsive 10133
bin 10129
##pc 10126
auspices 10125
~ 10125
tc 10122
finished 10121
injuries 10121
van 10117
ok 10108
certificates 10105
innocent 10103
##sin 10102
visitors 10094
prohibit 10093
predict 10092
england 10084
branches 10083
川 10082
possibilities 10077
demographic 10076
judgment 10067
賃 10066
route 10065
worker 10065
infection 10052
螺 10048
cart 10047
encountered 10047
sul 10044
wishing 10041
driver 10033
saharan 10032
cabinet 10031
diet 10030
tensions 10027
ltd 10026
establishes 10024
namibia 10024
##car 10020
appearance 10020
discovered 10018
峻 10018
battle 10014
departure 10013
鼻 10012
chronic 10010
闊 10010
symbol 10003
踏 9998
gratitude 9997
shipping 9995
crops 9993
gathering 9991
##iation 9989
##dable 9987
tibet 9987
lesson 9985
誼 9980
囊 9976
skill 9971
condemn 9970
彎 9968
朵 9963
excluded 9962
grew 9960
gun 9958
噪 9953
affects 9949
capita 9949
accessibility 9942
meat 9942
mom 9942
prop 9942
prevailing 9939
tension 9938
hurt 9936
##bri 9933
崩 9932
owner 9929
permits 9918
蘋 9918
##nate 9913
dress 9912
eating 9909
albania 9905
withdraw 9905
codes 9904
moldova 9904
robust 9904
asking 9901
benefited 9894
##ome 9892
欲 9892
feasibility 9891
##ost 9890
supposed 9890
woods 9890
ss 9889
##iter 9884
readiness 9879
##ico 9874
existed 9869
governor 9869
##lt 9867
犧 9866
##ator 9865
##cia 9852
compact 9852
##zo 9850
pleasure 9845
colleagues 9840
dim 9835
newspaper 9834
translated 9833
摸 9829
christmas 9828
爬 9826
license 9823
viewed 9821
##tm 9817
玉 9805
淺 9804
launching 9800
opposed 9795
permission 9793
appreciated 9792
instruction 9791
admission 9789
assign 9787
堪 9785
muslim 9782
鍊 9779
倖 9777
柏 9776
##rov 9775
consisting 9773
##eurs 9771
autonomy 9769
privacy 9768
stockholm 9768
ring 9763
##und 9759
bond 9757
##unt 9755
##ient 9748
answered 9739
elaborate 9738
斜 9738
籃 9735
viable 9734
懈 9733
sand 9732
##ete 9716
聊 9711
卸 9710
##ffi 9709
##tail 9709
##lines 9708
screen 9706
assure 9692
installation 9690
垂 9689
admitted 9687
鬱 9681
accidents 9680
lake 9679
##nut 9674
仁 9673
preceding 9668
龐 9667
kg 9666
##mer 9660
attorney 9658
comprises 9657
gathered 9657
tobacco 9657
##pu 9654
busy 9653
rental 9645
艦 9645
##han 9644
whereby 9641
guilty 9640
廚 9636
academy 9635
羈 9631
deploy 9630
hate 9622
promotes 9621
calm 9620
calculation 9619
toxic 9617
bahrain 9613
smart 9613
finalized 9612
revenues 9609
侶 9609
##ern 9608
蔓 9601
ranging 9600
faster 9598
##ara 9591
friendship 9591
hostilities 9591
##ud 9588
earnings 9585
陝 9581
crop 9580
foundations 9576
audio 9573
yu 9563
interpret 9562
plastic 9561
陀 9560
urgency 9557
頗 9555
considerably 9554
fly 9546
gift 9545
les 9545
surrounding 9543
silver 9540
summarized 9538
lithuania 9537
##ider 9533
lady 9524
##tar 9523
buyer 9523
tin 9523
蒸 9523
divorce 9520
steady 9518
##ancy 9514
thick 9511
advancing 9510
subsistence 9509
tested 9509
alien 9506
printing 9506
##ita 9498
慨 9491
stories 9484
flying 9483
##ssi 9473
##rac 9470
macedonia 9469
diagnosis 9468
壘 9463
defining 9458
bird 9447
prof 9444
characteristic 9441
cited 9439
returning 9437
enacted 9435
negotiated 9434
falls 9429
emirates 9428
malta 9428
##tation 9422
consistency 9422
unprecedented 9421
miles 9419
norma 9412
italian 9410
潰 9408
accuracy 9407
fault 9403
##rio 9402
##yp 9397
socialist 9396
upgrading 9391
wise 9391
jack 9390
柴 9389
analyze 9380
sheet 9380
ensured 9378
alarm 9376
jean 9372
horse 9365
頸 9365
treasury 9360
##opa 9357
foods 9355
##net 9353
petition 9352
##lica 9351
contributes 9350
george 9350
##cie 9345
loved 9343
攬 9343
##isation 9340
ou 9340
帽 9340
boards 9333
##gement 9332
憐 9329
##sum 9326
謊 9322
holiday 9318
jesus 9317
till 9316
cod 9307
edge 9304
threshold 9303
theoretical 9294
interface 9293
continuity 9292
桶 9292
cool 9290
##ique 9280
salt 9277
##just 9273
feelings 9270
paraguay 9270
instability 9265
listing 9265
飽 9263
twelfth 9259
advertising 9257
unified 9257
wang 9254
load 9249
lawful 9248
alternate 9246
separated 9240
shu 9237
unknown 9236
arrival 9226
declare 9226
fulfilling 9223
advised 9222
ie 9220
uncertainty 9220
##nable 9219
discretion 9216
wing 9215
worry 9214
疼 9214
喊 9202
dominican 9201
fate 9195
熊 9192
planet 9190
obliged 9184
argued 9181
extending 9181
harmony 9179
qualifications 9175
residential 9173
紡 9170
rendered 9169
statutory 9164
escape 9160
耀 9159
##ck 9158
##ute 9158
丙 9157
peer 9154
justify 9141
盒 9140
##cum 9135
damages 9135
relatives 9135
枝 9135
轟 9135
##ming 9130
淘 9130
amp 9127
hill 9127
##rom 9126
dem 9122
mankind 9119
##ulates 9117
珊 9115
networking 9110
臂 9109
pieces 9100
胺 9097
洽 9095
colour 9090
sciences 9086
towns 9086
equipped 9078
##ids 9076
togo 9073
錫 9073
drafted 9071
indication 9070
炭 9068
腔 9064
##ut 9062
furniture 9061
succeed 9060
frank 9053
clothing 9051
football 9047
##azi 9046
delegate 9045
swiss 9045
radioactive 9042
yield 9041
艇 9041
custom 9039
琳 9030
advise 9025
simulation 9025
mediterranean 9024
cb 9023
broker 9021
##ice 9018
operated 9018
ana 9017
virus 9016
describes 9015
resolving 9015
everybody 9014
##ton 9012
mechanical 9008
##osition 9006
validity 9005
##olis 9004
ren 9004
霧 9004
醇 9003
##cala 9002
audience 8999
glad 8991
feed 8989
helpful 8981
hey 8981
affordable 8980
sh 8980
pops 8977
degrees 8976
yellow 8976
宙 8976
settled 8960
yugoslav 8958
喚 8958
executed 8954
designing 8952
rooms 8948
cher 8945
##ctive 8942
tradition 8937
kids 8935
highlights 8934
禽 8934
atlantic 8932
##eg 8931
寓 8931
founded 8930
lending 8929
舌 8929
complicated 8926
挫 8925
disco 8923
thoughts 8920
bra 8917
visa 8915
perceived 8912
拯 8912
defend 8911
usa 8909
adherence 8907
smile 8906
kyrgyzstan 8897
choices 8892
clause 8890
##ln 8887
ties 8887
examining 8885
fiji 8878
broke 8874
bay 8869
controlling 8869
秒 8868
sized 8865
roots 8864
##mu 8862
##gor 8861
damaged 8861
descent 8860
recipient 8860
neutral 8858
plate 8849
bn 8848
honduras 8847
justified 8847
executives 8846
render 8843
鈾 8839
foreigners 8838
pillars 8837
walked 8836
utilized 8835
proud 8832
hague 8829
矩 8827
撾 8826
瀏 8822
##sy 8821
registrar 8820
##ctor 8813
gulf 8802
reminded 8800
operators 8795
##ump 8790
fra 8789
aliens 8787
railway 8785
valuation 8776
##lessness 8775
reverse 8775
##yo 8771
\ 8768
collecting 8767
justification 8767
mortgage 8765
##ans 8763
醜 8759
meets 8756
甄 8756
securing 8755
##jan 8752
evil 8752
##ron 8751
卓 8745
辜 8744
##van 8742
transform 8742
廊 8740
modernization 8734
placement 8733
regulate 8730
timetable 8730
latvia 8727
mt 8726
recover 8714
ease 8709
fallen 8708
thee 8708
patent 8706
##one 8698
yo 8695
finish 8689
##ces 8687
罐 8685
mono 8679
unemployed 8679
dad 8676
pornography 8675
pledged 8674
sending 8674
tough 8666
哀 8666
duly 8663
##eth 8659
##pd 8658
adjust 8657
med 8656
##gre 8655
passing 8654
confirmation 8653
傲 8653
##san 8649
kilometres 8648
proven 8646
environments 8641
onto 8637
bangkok 8634
##ves 8632
sg 8632
opposite 8630
divisions 8628
decisive 8626
mag 8625
shut 8625
##aran 8620
taliban 8617
##scribe 8613
investigating 8612
鍛 8609
##lese 8604
##pres 8602
retention 8598
legitimacy 8597
##uss 8593
condemned 8593
governed 8591
lots 8590
aspirations 8588
cultivation 8588
nonetheless 8588
proposes 8587
##cut 8579
earn 8572
##pon 8568
eva 8566
撐 8566
lowest 8565
ages 8564
niger 8563
##ero 8562
wan 8562
walking 8561
utmost 8560
watching 8559
alcohol 8558
supportive 8555
acknowledging 8554
dance 8554
que 8551
tight 8550
mel 8548
advocate 8545
##cation 8533
##nia 8531
silence 8530
chambers 8528
databases 8528
mp 8527
alma 8525
venture 8525
^ 8523
wake 8519
executions 8518
deposits 8517
reflection 8517
stereotypes 8517
carrier 8516
prominent 8515
sons 8511
##ny 8509
閥 8509
lao 8508
##gra 8507
拼 8504
sphere 8503
##oa 8501
corner 8501
##sto 8500
ensures 8500
birds 8499
announcement 8498
notion 8498
proceeding 8498
variance 8498
releases 8495
interviews 8492
##ks 8491
desirable 8491
漿 8490
##all 8487
tar 8486
possess 8485
肅 8480
default 8475
challenging 8472
fur 8472
##tance 8469
tonight 8468
smoking 8467
##urrent 8464
bonds 8463
胃 8457
seed 8455
##sed 8453
samoa 8452
continental 8449
慕 8449
abolition 8448
dev 8447
wonder 8445
紫 8445
predictable 8441
禱 8430
sugar 8428
cy 8427
ethical 8426
##rp 8424
print 8424
##ui 8419
cape 8419
phases 8414
##ob 8413
assumption 8413
visible 8412
settings 8403
篩 8403
hs 8402
phrase 8402
arguments 8401
奈 8400
松 8399
##rro 8397
seller 8392
protective 8390
trustees 8389
inspections 8387
emotional 8383
gate 8381
榜 8380
renew 8379
haitian 8377
buying 8375
##missible 8374
shipment 8374
##bro 8371
##let 8360
歇 8360
##ota 8358
affair 8358
晉 8357
##ified 8355
##ising 8353
##ists 8353
occurs 8350
##ented 8349
estonia 8348
ends 8347
##ste 8346
##pic 8344
誇 8344
cyber 8341
definite 8335
regulated 8333
騰 8331
##min 8330
passage 8329
鬧 8326
teach 8324
processed 8323
##bl 8322
restaurant 8320
documented 8317
maximize 8317
wu 8314
##mat 8313
applicants 8313
釐 8313
festival 8309
##oh 8306
thirds 8306
逼 8305
circular 8299
debris 8298
expense 8297
##pha 8296
lakes 8296
moderate 8295
christian 8293
弊 8293
detect 8290
player 8290
quantitative 8282
mad 8281
屈 8278
惱 8276
tall 8274
strange 8271
愚 8271
classified 8269
##yah 8268
fellow 8268
蜜 8267
胖 8265
##ind 8264
##hel 8255
kam 8255
##ak 8246
姿 8245
##los 8244
wo 8244
debates 8243
diamond 8241
heaven 8241
ak 8240
mountains 8239
succession 8239
獸 8238
餅 8238
comparable 8237
##coming 8232
lunch 8231
籠 8231
recording 8229
檯 8224
religions 8223
淋 8222
慷 8219
spokesman 8217
羞 8217
##rdi 8212
roster 8210
##gl 8209
cooper 8206
thanked 8203
bases 8202
##marks 8200
martin 8200
勸 8198
click 8197
domain 8197
piracy 8197
hyper 8196
journey 8193
墓 8192
obstacle 8190
幽 8188
breakdown 8180
traditions 8180
discount 8179
##pin 8178
纂 8176
concentrated 8174
暢 8174
##dd 8171
column 8170
empty 8167
align 8166
attending 8166
佐 8165
lift 8164
acknowledges 8159
borne 8156
wisdom 8154
apple 8151
forever 8150
samples 8147
therapy 8141
democrat 8132
missiles 8130
luxembourg 8129
賭 8120
module 8119
抬 8119
mas 8116
crowd 8111
##tative 8107
thirteenth 8107
##oy 8106
裕 8101
fragile 8097
string 8097
腰 8097
commentary 8095
曉 8094
灘 8092
malawi 8091
honest 8090
僕 8089
outs 8088
brothers 8085
##ures 8084
tenure 8083
pupils 8082
arrive 8079
##cci 8078
quan 8078
persist 8075
tour 8069
##ass 8068
uncertain 8066
licensing 8063
negotiate 8063
destroy 8062
躺 8060
吞 8057
祭 8057
av 8056
亨 8056
attempted 8055
freeze 8055
##tila 8054
pull 8052
streets 8052
pm 8048
struck 8048
medicines 8046
aren 8044
##ast 8043
cuts 8041
fort 8040
##lin 8039
practitioners 8039
timeline 8039
sur 8037
艙 8037
iceland 8036
瓊 8035
##ved 8032
dust 8031
扔 8025
煉 8025
devi 8022
lee 8022
band 8021
##minated 8018
##omp 8017
vary 8016
imported 8011
denial 8010
councils 8009
mora 8007
##rian 8003
##sur 7998
ps 7997
蜂 7996
crossing 7994
evaluating 7993
attributed 7992
##mist 7990
outset 7990
skilled 7990
arrange 7989
reliance 7987
wherever 7986
disadvantage 7982
##pel 7981
runs 7980
monterrey 7979
shoes 7961
voters 7960
dna 7959
pressing 7958
tired 7958
realities 7956
##gr 7951
緝 7951
exercising 7944
##aa 7943
##jou 7943
installed 7943
reputation 7939
涯 7939
mg 7936
refusal 7936
##ono 7934
##pire 7934
##ym 7934
discussing 7931
undertook 7931
recession 7929
happens 7926
hatred 7925
##cture 7924
patrol 7922
unacceptable 7922
halt 7919
泉 7919
elaborated 7918
##ung 7917
liable 7917
葬 7915
settle 7906
##ory 7905
creditors 7902
excuse 7898
generous 7897
倆 7895
后 7895
jurisprudence 7894
##ching 7893
nominated 7892
bottle 7889
telling 7888
accreditation 7885
assured 7883
exhaust 7883
everywhere 7881
虧 7880
nato 7878
punished 7877
screening 7877
exploit 7874
##ric 7873
server 7872
shell 7869
rs 7866
痕 7866
deterioration 7865
##mina 7864
##eti 7862
renewal 7862
tan 7859
circuit 7851
attractive 7850
##aw 7849
mistake 7847
酶 7845
silent 7844
exercised 7843
unpaid 7842
吵 7838
##ject 7835
殿 7834
盆 7831
##lea 7830
kin 7830
##ino 7828
沖 7825
broadcasting 7824
exclude 7823
restrict 7822
exceptions 7820
passengers 7818
凌 7817
demonstration 7816
habit 7816
inner 7813
##nti 7812
privileges 7812
diplomacy 7806
烯 7805
##gy 7804
height 7804
stick 7799
inventor 7796
##acy 7793
inspector 7793
鉛 7789
knowing 7787
vessel 7784
挺 7784
reinforced 7782
掙 7780
hang 7779
thereafter 7776
ballot 7773
rotation 7771
##ume 7768
younger 7767
wonderful 7766
擋 7765
modest 7763
workforce 7757
##log 7749
瘍 7747
nobody 7745
orbit 7745
ee 7744
acted 7740
answers 7740
native 7738
evaluated 7732
潘 7732
refuse 7730
劍 7729
##cm 7726
preferred 7724
immigrants 7722
taught 7722
hub 7718
##ox 7717
corrections 7716
managerial 7714
汰 7712
appendix 7711
##chi 7710
mat 7710
accelerated 7709
guess 7709
terror 7707
excluding 7706
jan 7706
grain 7703
kw 7702
soviet 7698
tokyo 7697
participant 7694
wai 7693
wet 7693
dan 7692
madrid 7691
evolving 7690
##lam 7687
##ard 7686
interpreted 7686
residual 7680
躲 7680
saturday 7678
extract 7677
pillar 7675
distinguished 7673
investing 7672
killings 7668
ought 7665
stars 7665
##ega 7664
personality 7664
beat 7663
brussels 7661
##ret 7659
##del 7657
##ami 7655
tai 7655
conversation 7654
##dal 7649
witnessed 7647
dd 7646
爛 7646
somewhat 7645
virtue 7641
襯 7637
withdrawn 7635
botswana 7634
鋁 7633
panels 7631
turkmenistan 7627
##cd 7625
fulfilled 7624
alive 7618
optimal 7615
kit 7613
雕 7613
specialists 7611
identical 7609
moscow 7607
橡 7607
imagine 7604
##listic 7602
##gal 7600
usage 7595
aggregate 7594
##lc 7590
mix 7589
humans 7588
suicide 7587
birthday 7586
blow 7574
surprise 7574
##hal 7572
clearing 7572
novel 7572
烤 7568
bolivar 7567
桿 7563
islam 7560
configuration 7558
miscellaneous 7556
creates 7554
directions 7552
##ori 7550
accommodate 7550
蔬 7550
hole 7549
##oni 7540
introduces 7540
##dar 7528
##ele 7525
conceptual 7524
fm 7524
exhibition 7516
circulation 7514
institutes 7514
shopping 7514
concession 7513
賄 7512
##lla 7509
est 7509
reliability 7509
utility 7509
barbados 7507
intent 7507
taste 7497
##ey 7495
##tania 7493
intensified 7492
wearing 7490
兇 7488
survivors 7487
##erre 7486
testimony 7484
shortage 7475
tech 7475
linguistic 7470
arranged 7468
isa 7468
doc 7459
mapping 7459
##ner 7456
liechtenstein 7455
焊 7455
##lb 7453
峽 7453
marry 7451
gather 7443
cad 7438
ng 7437
hardship 7436
##vert 7433
criticism 7431
##logical 7427
captain 7426
涼 7426
exceeding 7425
蠟 7423
capture 7418
consultant 7418
smith 7418
supervisory 7417
satisfy 7416
sensing 7415
unusual 7415
bell 7414
cry 7410
hosting 7409
metres 7406
##ins 7398
##dou 7397
##ust 7397
entrepreneurship 7396
cho 7393
outlook 7392
weekend 7392
broadcast 7386
queen 7386
sep 7380
浴 7378
investigative 7376
losing 7376
粦 7373
marks 7370
褲 7369
bread 7366
invalid 7360
militia 7360
##fs 7356
avoiding 7356
placing 7353
motivated 7350
spoken 7350
##bular 7349
tank 7349
ea 7348
tariff 7347
奔 7347
instant 7341
##mal 7339
drivers 7337
isolation 7337
郊 7337
peak 7336
museum 7335
begins 7334
consist 7332
attach 7331
sd 7326
tuberculosis 7324
vigorous 7320
standardized 7318
##gm 7316
madagascar 7316
intend 7312
cheap 7311
寡 7308
##hy 7300
belong 7298
勻 7297
landscape 7295
issuing 7293
victory 7293
nas 7292
suppress 7292
嘯 7286
cope 7285
storm 7285
retail 7278
structured 7276
receives 7274
腎 7273
##minating 7272
寺 7272
machines 7270
tribute 7269
appealed 7267
##ore 7266
desired 7265
enables 7264
embassy 7262
fails 7261
chart 7259
鑰 7259
remind 7255
##inate 7253
artificial 7244
##tate 7243
yang 7239
叢 7239
漆 7236
concentrate 7235
incorporating 7235
valley 7231
##kind 7230
##bt 7228
pat 7227
utilize 7222
浸 7214
breaking 7212
tendency 7212
輝 7211
tears 7210
exit 7203
synthesis 7202
wash 7202
guam 7200
砍 7200
experiencing 7198
fertility 7198
kara 7197
characters 7196
incorporation 7195
斑 7193
flood 7190
esa 7188
fix 7186
ny 7186
installations 7184
pit 7176
civilizations 7175
prosecuted 7173
accomplished 7171
jurisdictions 7166
窩 7161
##tat 7159
courage 7158
realizing 7158
births 7154
##qu 7153
##uk 7153
disappeared 7152
dreams 7152
##iya 7151
aforementioned 7151
##dp 7148
##sk 7148
汁 7146
alert 7144
counterparts 7144
stimulate 7144
哨 7144
entrepreneurs 7143
supplied 7142
taxation 7142
剷 7141
curb 7139
spa 7134
jose 7130
robert 7130
##rant 7127
脊 7126
吊 7125
angry 7120
posted 7120
ticket 7120
diamonds 7117
puerto 7117
radical 7117
multinational 7115
voted 7114
timing 7113
##aga 7112
remarkable 7110
golden 7103
html 7102
irregular 7102
adds 7100
burning 7100
貶 7099
commencement 7094
毆 7091
##cho 7090
hardware 7089
##cial 7088
assault 7088
spec 7086
stamp 7086
repeat 7085
convenient 7084
politicians 7084
intimidation 7081
supplier 7081
肇 7080
##piration 7079
consulting 7079
periodical 7079
##zhou 7077
pensions 7077
certified 7076
examinations 7069
pair 7069
explosives 7067
sponsoring 7066
##orestation 7062
##ush 7060
parental 7056
archives 7055
narcotics 7055
娩 7055
maldives 7054
corporal 7053
逝 7050
anna 7049
writer 7049
puts 7047
肢 7041
communicated 7039
肪 7039
蠢 7038
solving 7037
comprise 7035
borrow 7033
concludes 7031
quantities 7031
##ours 7029
intense 7027
spiritual 7027
婆 7027
attache 7021
##ional 7017
hip 7017
鮑 7015
##over 7012
magazine 7012
悔 7010
upcoming 7009
symposium 7008
匆 7008
prize 7005
electro 7003
failing 7003
ray 7003
ky 7001
scenario 6997
attacked 6996
females 6996
promised 6996
shelf 6994
杆 6994
爺 6993
kan 6992
olympics 6992
rm 6992
updates 6989
threaten 6986
鋒 6986
incumbent 6981
spectrum 6981
bare 6980
experiments 6979
ports 6979
pot 6979
profession 6978
copenhagen 6977
泵 6975
specialist 6974
flights 6970
differential 6966
匙 6966
##wl 6965
hearings 6962
慾 6960
##iness 6953
twelve 6950
膀 6950
caution 6948
bills 6947
handled 6946
satellites 6946
alleviate 6945
bigger 6943
sid 6935
euros 6931
##sl 6928
clarified 6928
coordinates 6928
dismissed 6928
neglect 6927
talent 6927
unnecessary 6925
substitute 6924
##are 6920
forming 6919
##ama 6918
##eva 6918
##oon 6918
pictures 6918
##gation 6917
##rued 6915
johannesburg 6915
詹 6909
qui 6903
kim 6899
chu 6896
悦 6896
basin 6895
cleaning 6895
petroleum 6895
handbook 6893
衫 6893
ut 6888
##hea 6887
forensic 6886
painting 6884
graduate 6883
guyana 6883
shoulder 6882
##lat 6881
##ane 6878
terrible 6875
stuff 6874
weaknesses 6874
叔 6874
##ova 6873
designate 6870
##way 6868
emergence 6865
##asse 6863
casualties 6862
劉 6858
bc 6856
california 6855
commenced 6855
ram 6855
xii 6855
exhausted 6853
publishing 6852
wars 6850
adapted 6849
恥 6846
ambitious 6844
ing 6843
prolonged 6843
assumptions 6841
ae 6840
hell 6839
marriages 6839
presenting 6837
farming 6835
sing 6833
##uous 6832
vertical 6832
dh 6829
expects 6829
hygiene 6827
baghdad 6825
depression 6824
吐 6822
honor 6820
limiting 6817
liquidation 6817
carries 6811
##cultural 6809
argues 6806
##ley 6804
##mism 6802
james 6801
regulating 6801
feels 6798
輩 6798
擱 6797
bomb 6796
interpreter 6796
swift 6796
##bal 6793
##ram 6790
mohamed 6790
##ered 6788
##wo 6788
ash 6786
gabon 6786
vu 6786
碩 6783
##asi 6781
##wc 6780
##mba 6778
lease 6776
outbreak 6775
beliefs 6772
sounds 6770
cotton 6769
philosophy 6769
##sten 6767
nt 6766
##thi 6765
cairo 6764
analysts 6761
gene 6761
##nch 6757
logical 6752
stereo 6752
collapse 6750
brett 6749
developmental 6749
nineteenth 6747
purchasing 6742
獅 6741
agrees 6740
draws 6739
filing 6739
bhutan 6737
沫 6735
##gil 6733
lacking 6733
magnitude 6733
wounded 6733
pun 6730
卵 6728
matrix 6726
cook 6724
newspapers 6722
upgrade 6721
筒 6721
insert 6718
clarity 6716
systemic 6714
訝 6714
##dr 6709
##hm 6709
gov 6708
merit 6707
##ih 6706
##time 6706
conscience 6706
##ics 6704
copyright 6704
freight 6704
##ened 6703
incomes 6703
powder 6699
row 6699
enactment 6697
senate 6690
superior 6687
accomplish 6683
氵 6683
##ibility 6681
prohibiting 6681
##bra 6679
deleted 6678
wondered 6677
兆 6676
##ow 6675
guys 6675
aggressive 6672
##oe 6670
circle 6666
##qi 6665
preference 6660
uh 6660
neighbours 6657
isolated 6656
conditional 6654
bone 6653
essence 6653
sudanese 6653
tremendous 6649
嘛 6647
##ned 6646
##torium 6646
lin 6644
stating 6644
thesis 6640
adolescent 6637
ama 6636
linking 6635
mil 6634
墊 6634
##oma 6633
祈 6631
##elo 6630
reserved 6629
turns 6624
dumping 6623
##ged 6620
##ised 6620
bulk 6617
嫁 6617
擎 6617
publish 6614
##life 6612
overwhelming 6612
monitors 6610
fifteenth 6609
incompatible 6608
##phi 6605
罩 6603
reconnaissance 6602
娃 6602
##list 6601
nationwide 6601
壟 6600
moves 6598
賜 6597
##app 6591
##gan 6591
##kar 6589
pin 6589
civilization 6588
switch 6588
throw 6586
consulted 6581
鹼 6581
comfort 6580
##point 6578
appropriations 6578
##uti 6575
earned 6575
arsenal 6574
##ame 6572
狼 6572
email 6570
controller 6569
##cco 6563
##rate 6561
cancellation 6560
google 6560
exploring 6557
##lass 6555
##has 6553
##ked 6553
harry 6552
aiming 6549
挽 6549
abandoned 6548
##cus 6546
tack 6546
walls 6545
barrier 6543
##form 6542
infected 6542
掠 6537
warned 6535
boundaries 6534
han 6533
criterion 6526
##cast 6525
hem 6525
##arians 6522
##ciency 6521
plain 6521
trinidad 6521
scarce 6520
##ug 6514
compatible 6514
##mate 6513
撓 6510
govern 6509
##fied 6508
lc 6508
##cat 6507
objections 6507
stigma 6506
君 6506
listening 6505
saved 6505
##yi 6504
dee 6504
precursor 6501
斡 6493
platforms 6492
revisions 6492
suspend 6492
misconduct 6490
tropical 6490
shadow 6488
##lity 6487
questioned 6486
昏 6482
prohibits 6479
廈 6479
relocation 6478
invested 6477
##ord 6471
咬 6469
燥 6468
composite 6466
##ously 6465
銳 6464
printed 6461
pour 6459
methyl 6456
varied 6456
##als 6455
meal 6450
spheres 6448
ty 6447
valued 6444
##qa 6439
宴 6439
溢 6439
flower 6436
intensity 6435
comfortable 6429
##ges 6428
fears 6428
passenger 6428
projections 6428
##yn 6425
earliest 6424
##tam 6423
ups 6422
tragic 6419
丘 6418
modules 6417
##sman 6413
declining 6407
blame 6404
unfair 6399
餵 6399
neck 6396
camera 6394
trace 6394
commence 6390
##hra 6388
civic 6386
confrontation 6385
rocket 6384
employ 6382
枯 6379
label 6378
bonn 6377
protest 6377
score 6377
mistakes 6373
dish 6372
##ras 6369
##uf 6368
##cent 6366
##uation 6366
##eh 6364
threatening 6363
溯 6363
##iving 6362
circled 6362
hal 6362
wedding 6362
restriction 6361
chen 6359
忌 6358
manifest 6357
surgery 6355
yi 6353
minds 6352
modification 6348
respondents 6348
bel 6344
highway 6343
##ulated 6342
dangers 6342
mill 6339
hazard 6338
氨 6337
inconsistent 6335
悄 6335
##uo 6331
centers 6327
maria 6325
avoided 6324
checks 6324
container 6322
explored 6322
rum 6321
sees 6320
鑄 6320
##dine 6319
feeding 6318
bulletin 6317
蛇 6315
僑 6314
autumn 6312
kitchen 6309
routes 6308
肆 6307
perception 6306
argue 6302
dependence 6297
shock 6293
anger 6291
pressures 6291
咱 6291
tobago 6290
chapters 6289
versions 6286
density 6282
窄 6281
joseph 6280
wen 6276
giant 6275
az 6273
##bas 6272
occasional 6269
##rad 6266
##top 6262
keeps 6257
##fra 6255
##ential 6254
discusses 6249
selective 6249
endorsement 6248
卧 6247
affirmed 6242
dogs 6242
##gur 6241
reveal 6241
leaf 6240
introductory 6236
suspect 6235
vacation 6234
accredited 6233
##link 6232
portal 6232
##city 6230
lau 6227
ang 6226
absent 6224
dynamics 6224
promising 6224
##rus 6221
indicative 6220
restrictive 6220
##las 6216
##zu 6216
breath 6216
respects 6216
shareholders 6211
zhang 6211
jump 6208
皆 6208
defines 6207
unanimously 6206
steadily 6205
chains 6203
##zh 6202
richard 6201
##shi 6198
tonnes 6198
respecting 6195
auction 6192
睹 6190
translate 6189
##date 6188
debts 6188
##lm 6186
##ulating 6186
##atory 6185
operates 6182
hazards 6180
impression 6179
捉 6177
##flict 6174
stores 6174
racist 6172
succeeded 6172
motivation 6170
defendant 6169
##rum 6167
collaborate 6167
deny 6166
spatial 6166
phenomena 6164
##rup 6163
influenced 6160
errors 6156
衍 6156
abduction 6155
talked 6153
° 6153
拐 6153
##rg 6152
filling 6150
##hab 6148
passport 6148
鴻 6147
楊 6146
ara 6145
operator 6141
removing 6141
##ates 6139
meantime 6138
constructed 6136
teeth 6136
cable 6134
##inated 6132
alignment 6130
charles 6129
proceeded 6129
##hood 6128
礁 6128
hidden 6127
##tt 6126
infections 6124
everyday 6123
loud 6123
##usa 6119
inheritance 6118
abdul 6117
starts 6114
sponsor 6113
tsunami 6111
##ima 6108
##yu 6108
incentive 6103
uranium 6102
somebody 6101
temporarily 6101
horizontal 6100
diversion 6095
notified 6093
mist 6091
virgin 6088
christ 6087
centred 6086
gravity 6085
sake 6083
patrols 6077
exceeded 6076
segments 6075
pipe 6073
persistence 6071
rotterdam 6070
ds 6069
shelters 6069
飼 6068
compare 6065
bas 6064
hostile 6064
investor 6063
##umber 6060
photos 6059
芝 6055
##hin 6054
premium 6054
grid 6050
truck 6049
marking 6048
bold 6047
mixture 6045
##ez 6041
##care 6039
winning 6039
##mc 6038
contributors 6037
##uro 6034
deposited 6034
stored 6034
##ek 6028
##lau 6028
緻 6027
burn 6026
tongue 6025
accelerating 6024
surprised 6023
corn 6021
istanbul 6020
likes 6019
##sus 6018
expressions 6018
annexed 6017
ave 6017
papua 6014
睦 6013
輟 6013
abe 6012
amnesty 6012
completing 6010
gibraltar 6010
margin 6009
哺 6009
##dev 6008
laser 6007
柯 6006
eliminated 6005
lying 6004
##had 6000
checkpoint 5999
junior 5998
induced 5994
luck 5994
##mon 5993
entrance 5993
manufacturers 5993
verb 5992
eligibility 5989
meteorological 5987
explanations 5982
websites 5982
americas 5979
devote 5976
inability 5975
mai 5975
exempt 5974
readily 5973
logic 5972
thinks 5972
rejection 5970
gases 5968
##ept 5966
disclosed 5966
nursing 5966
##dict 5963
gal 5961
risen 5958
recovered 5953
tibetan 5952
##vas 5951
reception 5950
銜 5950
##dra 5949
waves 5948
qualification 5945
tourist 5945
勾 5945
邪 5945
##nan 5944
##fall 5943
contend 5939
nose 5939
##oro 5938
nomination 5938
##rin 5936
遮 5935
split 5934
釘 5934
packaging 5930
##dent 5929
##ditional 5927
##chu 5926
噢 5925
demonstrates 5924
樁 5924
瞧 5923
optical 5922
invoked 5920
##ada 5918
##oga 5918
terminal 5916
##dy 5914
random 5912
##due 5910
##keepers 5910
| 5910
precious 5909
atlas 5908
leverage 5908
shan 5907
wr 5907
##tin 5905
##ption 5904
##cise 5901
裙 5900
##oun 5897
highlighting 5891
卑 5891
tube 5890
gb 5888
鍋 5887
quad 5885
stem 5883
##crow 5882
designation 5880
download 5880
lac 5880
##carbon 5879
admit 5879
##nk 5875
noticed 5875
##otho 5874
lifting 5874
rb 5869
swedish 5869
##fia 5868
brazilian 5864
##ceptive 5862
##hesion 5861
protein 5861
favorite 5860
rear 5860
ignored 5858
quo 5858
##ology 5856
suspects 5850
##my 5848
hide 5848
warming 5848
danish 5846
livestock 5844
nec 5844
oman 5843
##oja 5841
踢 5841
##hs 5840
gambia 5838
##ations 5835
eng 5835
稻 5834
錦 5833
dvd 5829
sixteenth 5829
evacuation 5827
intermediate 5827
edition 5825
傻 5825
standardization 5823
bail 5820
zu 5819
nominations 5818
jp 5817
sensitivity 5815
males 5813
tower 5811
##ular 5805
milestone 5804
驕 5804
los 5803
reward 5803
alike 5800
venue 5800
leisure 5797
thomas 5797
beach 5796
jin 5796
alter 5794
cloud 5792
##ene 5787
##dim 5786
publicity 5785
##kers 5784
successive 5784
packages 5783
unrest 5783
##icide 5782
##ster 5781
##wan 5781
赴 5781
injection 5774
酯 5773
拳 5771
##rative 5769
couples 5769
##ht 5768
frozen 5767
occurring 5765
ore 5764
maps 5762
recycling 5762
borrowing 5760
ceo 5759
瑚 5759
翁 5757
頃 5756
pharmaceutical 5755
pipeline 5755
construct 5753
硅 5751
喻 5750
seventeenth 5749
tribal 5749
khan 5748
produces 5747
寵 5747
polar 5746
撲 5746
implies 5744
凸 5744
sec 5740
dos 5739
ul 5735
} 5734
##person 5733
##pf 5728
膝 5728
precision 5727
array 5726
fluid 5726
##dia 5725
cult 5724
soldier 5720
##rb 5718
communist 5717
symptoms 5712
##icides 5705
cleaner 5705
ultra 5701
##bank 5696
demonstrations 5696
minimal 5696
{ 5696
disclose 5695
vacant 5695
watched 5695
鴉 5695
credits 5694
modify 5694
fourteenth 5693
anywhere 5692
悠 5692
accumulation 5688
##bor 5686
thermal 5685
devastating 5682
maj 5682
qi 5678
accomplishment 5677
microsoft 5676
頑 5672
prep 5671
explains 5668
##lic 5667
rubber 5664
crystal 5662
henry 5659
##ril 5658
fellowship 5658
offensive 5658
continual 5657
keen 5657
ter 5656
worship 5655
##umi 5653
##xa 5653
attracted 5652
libraries 5650
reproduced 5649
angle 5648
##ix 5646
comprised 5646
restored 5646
pic 5643
旬 5640
慌 5638
##iciencies 5635
rid 5632
editor 5630
preserving 5630
favor 5628
##arm 5627
eighteenth 5626
visibility 5626
signals 5624
lt 5622
accepting 5621
##mir 5620
lights 5620
堵 5620
poses 5618
recruit 5614
芯 5611
surge 5610
violating 5608
quarters 5607
assistants 5606
##ona 5605
bp 5605
瓷 5603
holder 5602
contexts 5601
discovery 5601
copper 5600
variable 5599
picked 5598
emerge 5597
##kin 5595
purchased 5592
verified 5592
##raf 5589
differ 5588
##lab 5584
dial 5582
absorb 5581
clinics 5581
mont 5581
tor 5581
servant 5580
飄 5577
氮 5576
bitter 5575
committing 5574
##shan 5573
##yan 5572
dominant 5572
nearby 5572
ceiling 5570
cement 5570
postponed 5569
盼 5569
穫 5566
deeper 5565
artistic 5564
彷 5564
##omi 5562
linear 5560
##lessly 5559
noon 5559
films 5557
awaiting 5556
occurrence 5555
ruled 5555
trainers 5555
##hn 5553
recipients 5553
##ran 5552
crack 5552
campus 5551
dig 5551
pulled 5550
successor 5550
纜 5550
##tment 5549
provider 5546
##mana 5545
surprising 5545
quit 5544
ride 5543
raises 5542
varying 5541
##bus 5540
vendors 5540
攀 5540
doctrine 5539
overs 5539
roof 5539
harvest 5537
underground 5536
emi 5533
nur 5532
##nh 5531
xiii 5531
combine 5529
apartment 5528
tie 5527
##rence 5526
contributor 5525
chances 5523
drove 5521
eggs 5521
##stra 5520
liu 5519
pride 5517
畏 5517
##anger 5516
sao 5514
aboriginal 5512
marital 5512
strain 5511
##ect 5509
pact 5509
##tem 5508
solomon 5508
槽 5507
joining 5506
legs 5504
ras 5504
眉 5504
##ured 5502
嗯 5501
blocks 5499
kid 5497
schooling 5495
survive 5495
##far 5494
eager 5494
毯 5492
hybrid 5491
tiny 5487
crude 5483
tape 5482
tragedy 5482
髒 5481
##iz 5478
coupled 5478
##rh 5476
##pers 5474
roman 5474
##pot 5470
bat 5467
##actic 5466
como 5465
detected 5465
catalyst 5463
##lp 5458
harsh 5457
globe 5456
dutch 5452
夕 5451
沮 5451
lifestyle 5449
rank 5449
timber 5447
magnetic 5446
abilities 5442
coat 5441
deserve 5441
encouragement 5441
holidays 5441
##sd 5440
unclear 5439
##dan 5438
fabric 5438
bahamas 5436
guards 5434
mercenaries 5434
phased 5434
##osa 5433
guests 5432
蹈 5432
##ith 5431
colleges 5428
tone 5428
fathers 5426
imposing 5426
trademark 5424
portuguese 5422
颶 5419
deportation 5418
economists 5417
inn 5416
harder 5415
remnants 5415
##hai 5413
vegetables 5413
壩 5413
worried 5412
扇 5412
tickets 5411
磚 5410
rolling 5409
alongside 5406
bet 5406
擅 5404
##lled 5403
extraction 5403
fiber 5399
rebel 5397
resist 5397
uncle 5396
闢 5395
erosion 5394
jun 5393
犬 5392
affirmative 5391
chose 5391
tissue 5391
aus 5385
imply 5385
treating 5385
妝 5384
sequence 5381
impetus 5380
backed 5378
yours 5374
correspondence 5373
doubts 5370
棵 5370
##az 5368
##lim 5367
contaminated 5367
##set 5366
criminals 5366
##lit 5365
坑 5364
captured 5363
compiled 5363
metals 5363
豫 5362
guest 5361
aug 5360
overcoming 5359
investigators 5358
##inge 5357
noble 5357
##ied 5354
癮 5353
jewish 5351
攔 5350
chicken 5349
dose 5349
compounds 5348
fuels 5348
liver 5347
輿 5346
tha 5345
abolished 5343
phil 5341
rail 5341
##turn 5338
##light 5337
##lem 5336
mood 5336
濱 5335
##rf 5334
por 5334
##itic 5333
deputies 5332
##hat 5328
##sso 5327
癒 5327
##ik 5326
tab 5326
瑰 5326
span 5325
southeast 5324
arrests 5322
legacy 5322
reg 5322
inception 5321
##hg 5320
##mart 5319
proportional 5318
demanded 5317
##ata 5316
wheat 5316
##chan 5313
##plin 5313
cream 5312
graduates 5310
rehab 5309
egyptian 5308
##late 5307
finger 5305
postal 5305
##var 5304
boom 5304
ranking 5304
##ose 5302
##ville 5299
ahmed 5298
##group 5297
founding 5297
retire 5294
helicopters 5292
shaped 5292
condo 5290
剖 5290
verde 5289
wheel 5288
##mas 5287
scar 5287
ao 5285
challenged 5285
##gon 5284
stolen 5284
lip 5283
惟 5283
##isa 5282
##ture 5282
promises 5282
inappropriate 5278
ot 5277
generic 5275
solved 5274
drag 5272
gaining 5272
蠻 5271
侮 5270
peninsula 5268
seeds 5265
privatization 5264
telecommunication 5264
##wood 5263
ala 5262
##fle 5261
lifted 5259
##oth 5255
commented 5254
distinguish 5254
tells 5253
supporters 5252
歎 5251
heating 5250
volatile 5250
morgan 5248
val 5247
漑 5246
##fold 5245
lock 5245
trips 5244
belongs 5243
lifetime 5241
paint 5240
tied 5240
##gar 5239
##np 5239
convert 5236
advocates 5234
correlation 5232
##lists 5231
connect 5227
##bid 5226
suspicious 5224
涅 5223
reject 5222
陌 5222
鈴 5220
corrected 5219
ox 5217
temple 5215
norm 5213
voluntarily 5211
##eng 5210
mexican 5209
owed 5209
##py 5208
##eni 5206
pricing 5206
infectious 5205
indictment 5204
william 5203
canton 5201
fortune 5200
excellence 5197
georgian 5197
notable 5196
farms 5195
魅 5195
deciding 5194
arose 5191
##yt 5189
exam 5189
##rid 5188
lone 5186
celebrate 5184
attempting 5182
helicopter 5182
穀 5180
numerical 5179
qing 5178
##feit 5176
clusters 5176
ranks 5171
seventy 5170
渥 5170
nano 5169
罵 5168
reasonably 5166
lucky 5164
educated 5163
lam 5160
innovations 5157
裹 5153
##ering 5152
##ule 5151
confined 5151
equatorial 5151
consular 5150
##ach 5149
桃 5149
玫 5148
##aria 5145
reins 5143
磺 5141
##ege 5140
##ere 5140
predecessor 5140
剋 5139
incomplete 5138
seal 5138
##pone 5137
diagnostic 5137
##ail 5136
breakfast 5136
pocket 5136
connections 5135
monaco 5135
stat 5135
voices 5134
clauses 5133
compensate 5131
municipality 5129
stayed 5129
consecutive 5127
grouping 5127
巾 5127
gear 5124
identifies 5124
##iction 5122
crew 5122
invention 5121
xiao 5121
react 5120
##oum 5119
pays 5118
##eo 5117
disregard 5117
##ergy 5116
抹 5116
fleet 5115
##yed 5113
establishments 5113
纏 5113
ion 5112
##ear 5108
##hl 5107
determines 5107
nh 5107
gifts 5105
abstract 5103
##gno 5099
legislature 5097
shooting 5097
dominated 5096
懶 5096
vendor 5095
鳴 5095
advocated 5094
painful 5093
clinic 5092
facilitates 5091
shocks 5091
bali 5090
instrumental 5090
##uca 5089
naval 5089
##dh 5087
static 5086
approached 5084
cumulative 5084
engineers 5084
harness 5083
loose 5079
palace 5079
nowadays 5078
overlap 5078
rico 5078
ahmad 5077
loving 5076
##cle 5074
muslims 5070
computing 5068
##ker 5067
mater 5066
irrigation 5065
##off 5061
graduation 5060
intentional 5060
ns 5059
tooth 5059
aftermath 5058
repay 5057
nervous 5056
##back 5055
##nat 5054
##sw 5054
parking 5054
administer 5051
princess 5051
retired 5049
##gni 5048
unexpected 5048
##acies 5047
##yr 5047
guns 5046
oversee 5045
travelling 5043
##ema 5042
倦 5041
contest 5039
amongst 5035
entertainment 5034
hon 5034
##ced 5033
inevitable 5033
reunification 5032
silk 5031
彿 5031
##ien 5028
##oi 5028
seizure 5028
successes 5027
cooking 5026
##ean 5025
lab 5025
tang 5025
hearts 5024
offshore 5024
demanding 5022
safer 5021
dynasty 5020
mount 5020
assuming 5019
restraint 5019
##rich 5017
##une 5017
hum 5017
bears 5015
disorder 5015
蒼 5015
happening 5014
##zia 5013
##yna 5012
焚 5011
mud 5010
##rar 5009
sophisticated 5008
##het 5007
arch 5007
tam 5007
engineer 5006
gay 5001
shame 5001
supervise 5001
classroom 4998
##ils 4997
##truct 4997
educate 4996
wei 4996
##kong 4995
蚊 4995
##hart 4994
mouse 4994
combining 4993
dioxide 4991
##tec 4990
praise 4989
freezing 4987
observing 4987
##gate 4985
polish 4985
gui 4983
scenarios 4982
disposition 4981
啤 4981
ignore 4980
plenty 4978
converted 4976
honey 4969
template 4969
assignments 4968
cycles 4968
mirror 4968
diver 4967
empowered 4966
rigorous 4964
contracted 4963
interact 4961
pump 4961
syndrome 4961
landing 4960
cure 4959
settlers 4959
smell 4959
瞬 4959
##ski 4958
inviting 4957
mature 4954
designs 4952
radar 4952
ink 4949
utilizing 4947
pounds 4945
僚 4945
suppose 4941
republican 4940
sheets 4940
tip 4938
樞 4938
##tis 4937
bull 4937
belt 4936
悶 4936
choosing 4934
paramount 4933
sleeping 4931
nurse 4928
prisoner 4928
##berg 4925
bun 4925
regretted 4925
##nes 4924
clinton 4924
forgotten 4924
hello 4917
observatory 4917
faithful 4914
pushed 4911
activists 4910
terminology 4908
##pace 4907
distress 4907
egg 4904
tanks 4904
ethiopian 4903
precedent 4903
酮 4903
隙 4903
tn 4902
acquiring 4900
oz 4900
reminder 4900
熔 4900
holdings 4895
intelligent 4893
accumulated 4892
explosion 4892
rations 4890
芒 4890
competing 4889
protests 4885
tentative 4885
髓 4884
convergence 4883
dam 4883
blockade 4880
芳 4879
correction 4877
##ians 4876
bon 4876
##itive 4873
missed 4873
賂 4872
doors 4870
norwegian 4870
checking 4869
inca 4869
mayor 4866
specifications 4865
button 4862
蔽 4860
##ony 4858
theft 4857
inquiries 4854
evolved 4852
contamination 4851
reporters 4851
swimming 4851
angel 4845
carriage 4844
棘 4843
cord 4841
solemn 4839
貯 4839
##mide 4837
##pac 4837
oxygen 4837
xl 4836
##ano 4831
##pate 4830
catholic 4828
readers 4828
##ech 4827
sheep 4827
crown 4826
persecution 4826
profiles 4825
indefinite 4822
鈕 4822
meter 4820
proposing 4818
belize 4817
seconds 4816
coach 4815
interfere 4815
謗 4815
##tr 4812
attained 4812
陵 4812
floods 4811
laugh 4811
##sr 4810
xiv 4810
##tha 4809
theories 4808
producer 4807
toll 4807
hoping 4805
##iste 4803
argentine 4803
distribute 4803
兔 4803
##fan 4801
ate 4799
umbrella 4799
##ipe 4796
##head 4793
anyway 4793
hired 4793
##fy 4789
unchanged 4789
fans 4787
factual 4786
##tle 4781
##don 4779
beer 4778
caledonia 4778
executing 4777
##ale 4776
##tracted 4775
spaces 4773
urging 4773
elementary 4771
neo 4771
beg 4769
inspired 4769
remainder 4767
slave 4767
taxi 4767
shed 4765
plural 4764
spill 4764
corrupt 4763
voltage 4762
fever 4761
serb 4759
retro 4758
seize 4758
downs 4757
##fat 4756
magic 4756
lacked 4755
failures 4754
revolutionary 4751
faculty 4750
scholars 4750
脣 4750
disrupt 4749
hire 4749
uneven 4749
actor 4748
寂 4746
buyers 4744
beaten 4741
embrace 4738
##press 4737
minerals 4737
hiring 4736
##ben 4735
shells 4735
shin 4735
fossil 4734
theatre 4734
贖 4733
backs 4732
expo 4731
wal 4731
encounter 4729
renovation 4729
spreading 4729
tail 4729
beating 4728
ming 4728
shouldn 4728
##iel 4727
eli 4725
嵌 4722
habits 4721
optimization 4721
##ware 4719
stepped 4719
##plify 4718
##oss 4717
administrations 4717
beside 4717
##awa 4716
departmental 4716
tariffs 4715
manufactured 4713
##eri 4712
##stic 4710
瀕 4710
defeat 4709
cancel 4708
serbian 4708
filter 4707
harbour 4707
綿 4706
##air 4704
##hing 4702
rivers 4702
盯 4702
##gent 4698
massacre 4698
sync 4698
##rization 4696
illustrated 4695
mohammed 4693
displayed 4692
interviewed 4692
##dom 4691
calculate 4691
impressive 4691
consultancy 4689
concentrations 4688
mach 4688
##olo 4687
##org 4686
contradiction 4685
tim 4685
candi 4682
phones 4682
宰 4682
consisted 4681
##cor 4678
##ela 4678
selecting 4678
##adi 4676
##gn 4676
veto 4676
##text 4675
sustaining 4675
##dl 4674
ace 4671
somewhere 4671
governorate 4669
sewage 4669
simplified 4669
sk 4669
liked 4667
shirt 4666
fortunate 4665
##bin 4663
cpc 4662
disruption 4662
cass 4661
laboratories 4661
bath 4660
##ately 4658
##fect 4658
俘 4658
constituent 4657
lan 4657
ordnance 4657
expectation 4656
rigid 4654
tends 4653
containers 4649
碗 4649
modifications 4648
##ums 4647
mess 4647
centuries 4646
variation 4640
矮 4639
parameter 4638
曠 4638
nod 4637
trauma 4635
modes 4633
rooted 4633
singing 4633
rod 4632
kn 4630
嘲 4629
tourists 4627
拾 4625
coral 4624
惕 4624
adjacent 4623
crossed 4623
匿 4623
congratulations 4622
buffer 4621
hopeful 4621
tortured 4621
ceased 4620
connectivity 4620
##imo 4619
dismissal 4618
ml 4618
confusion 4617
笨 4617
daniel 4616
杉 4616
##zan 4615
奢 4615
##hed 4614
behold 4614
intervene 4614
meta 4614
諷 4614
ethnicity 4612
maxim 4611
sac 4609
wildlife 4609
foremost 4608
outlines 4608
rating 4608
##ium 4606
conservative 4606
##board 4605
dialogues 4605
扼 4605
bal 4604
tire 4603
cab 4601
universe 4601
opera 4600
opium 4600
forge 4597
mb 4597
cleared 4596
##dina 4595
guardians 4595
convictions 4594
##sel 4592
gang 4592
馳 4592
pound 4591
atmospheric 4588
##av 4587
develops 4587
beirut 4586
瘦 4586
flash 4585
##bei 4583
##uba 4582
##tify 4580
pd 4575
jim 4574
sap 4572
coup 4570
fled 4566
strikes 4566
##tee 4565
neighbour 4563
banned 4562
tailored 4562
nos 4559
indonesian 4558
tens 4558
nets 4557
stamps 4557
simon 4556
##uan 4552
restoring 4551
strengths 4550
predominant 4549
las 4547
stimulus 4546
terminated 4546
##ok 4544
geological 4544
jane 4544
policing 4544
##asurable 4542
delicate 4542
farmer 4542
counties 4541
ears 4541
##olved 4540
packing 4540
fruits 4538
armament 4536
棕 4536
##tte 4535
attracting 4535
grades 4534
紗 4534
##gul 4530
##llo 4528
##ception 4527
##ener 4527
釁 4527
##water 4526
bore 4526
##going 4520
accompanying 4519
memorial 4514
##tained 4510
pleasant 4509
喉 4509
chip 4508
sq 4506
棟 4506
informing 4504
肖 4504
nan 4503
##ae 4502
execute 4502
##zy 4501
##tails 4499
wil 4499
artillery 4498
berlin 4497
rounds 4497
##zar 4496
trigger 4495
##fully 4494
digest 4494
leather 4493
extends 4492
##uz 4491
songs 4491
immense 4490
##gb 4489
confront 4489
侯 4487
##por 4485
dying 4485
segregation 4484
##ther 4483
complied 4482
instituted 4481
signatures 4481
##metric 4480
hungry 4480
tertiary 4478
chan 4476
廁 4476
reno 4475
interactions 4474
vitamin 4474
hua 4472
valve 4472
null 4471
##lis 4470
celebration 4470
scales 4470
##sper 4469
healthcare 4469
vaccine 4469
##iva 4467
immune 4467
spin 4462
participates 4461
##tling 4460
##war 4460
destructive 4460
organised 4459
摔 4459
##cion 4458
slip 4457
##pala 4456
claiming 4455
discover 4453
sf 4453
aero 4452
##els 4450
lung 4450
math 4450
inevitably 4449
reforming 4449
##ental 4448
##oper 4447
purchases 4447
joe 4445
胗 4443
gates 4442
##iner 4439
fluctuations 4439
黴 4439
residing 4438
碯 4438
qualities 4437
tracing 4437
searching 4436
##ito 4433
grace 4432
##ain 4431
cloth 4431
volumes 4431
##kt 4430
##tc 4430
##hua 4429
enjoying 4429
enrolled 4429
dressed 4427
##long 4426
striking 4424
locked 4423
簿 4420
distant 4419
傘 4419
chang 4418
marshall 4418
reads 4415
##ishment 4412
factories 4412
ft 4412
隧 4412
arises 4409
mic 4408
warehouse 4407
nutritional 4405
棍 4405
preferences 4404
磅 4401
酚 4401
cancelled 4400
##gis 4399
suriname 4399
##uil 4397
pale 4397
槌 4397
disk 4395
shorter 4394
stomach 4394
##rst 4393
##uring 4393
employing 4393
棲 4393
懾 4390
leak 4389
抖 4389
翅 4389
##osi 4387
inserted 4387
霜 4387
誹 4386
##aro 4383
欽 4383
羽 4383
chest 4381
embodied 4380
gazette 4380
ton 4380
##sia 4379
diabetes 4377
dept 4375
hai 4375
jar 4375
reduces 4375
蕭 4375
##via 4373
clouds 4372
decreasing 4372
kidnapping 4372
transformed 4372
##ato 4370
commissioners 4369
hampered 4368
opens 4368
##ash 4365
checked 4365
enrichment 4365
lamp 4362
株 4361
懇 4359
lucia 4358
prosperous 4358
visas 4358
stones 4357
announce 4356
##hor 4355
fin 4355
confiscated 4354
仙 4352
exported 4351
favoured 4351
膏 4350
##powering 4349
##uru 4348
淵 4348
##vio 4345
economist 4345
supplemented 4344
##ores 4341
##rito 4341
governors 4340
vincent 4340
lap 4339
tap 4339
##unce 4335
avail 4335
matching 4335
staying 4335
indications 4334
##pati 4333
reluctant 4333
塌 4333
jones 4332
albanian 4330
shortages 4330
mike 4329
bias 4328
premier 4327
cried 4326
裸 4326
##kan 4325
enjoys 4325
speedy 4325
##ings 4322
##you 4318
dare 4318
gp 4318
##cas 4317
##ifies 4317
artists 4316
渣 4316
vacuum 4315
酵 4315
##pit 4313
babies 4313
竹 4312
ff 4311
threw 4310
exchanged 4309
repairs 4308
touched 4307
溜 4307
therapeutic 4305
##rily 4304
tear 4302
##sul 4300
passive 4300
protects 4300
bride 4298
dl 4298
mortar 4298
脾 4298
捨 4297
voter 4295
schedules 4293
mile 4292
kabul 4291
##entation 4290
caring 4290
ideological 4290
observes 4289
cas 4287
yan 4287
##dor 4286
twin 4286
帆 4286
documentary 4285
premature 4285
##oning 4284
artist 4281
concurrent 4281
ken 4281
焰 4281
athletes 4280
dimensional 4280
plight 4280
bombs 4279
militias 4279
##bic 4278
academia 4277
journalist 4277
loop 4277
narrative 4277
##sg 4275
buried 4275
surrender 4275
canal 4274
validation 4272
##lco 4271
definitive 4264
brave 4261
fulfill 4261
corp 4260
scholarships 4260
infringement 4258
commissioned 4257
initiation 4257
donations 4254
flame 4254
injustice 4254
arctic 4253
transplant 4253
mao 4252
textbooks 4250
traders 4248
quest 4246
##uate 4245
confronted 4244
rom 4244
敞 4244
##bay 4243
compliment 4243
install 4242
proclaimed 4242
announcements 4241
##put 4240
oct 4240
variations 4239
hung 4238
mir 4238
##eli 4237
creativity 4236
dedication 4236
dom 4236
crazy 4233
deteriorating 4233
entrepreneur 4233
convenience 4232
tunnel 4232
afforded 4230
gray 4230
bai 4229
describing 4229
妓 4229
##mpt 4228
guides 4228
unauthorized 4227
synthetic 4225
sang 4224
##ennial 4223
beam 4223
mobilized 4223
##ices 4222
lacks 4222
biotechnology 4221
牴 4221
apartheid 4220
##side 4219
##erated 4218
orange 4217
efficacy 4216
loves 4216
replacing 4215
affiliated 4214
desperate 4214
toxin 4214
征 4214
chocolate 4212
ineffective 4211
fighters 4209
worthy 4209
##hir 4208
centralized 4203
墜 4201
recruiting 4200
##ign 4199
rt 4199
din 4198
deserves 4197
absorption 4196
shops 4195
猴 4195
hasn 4194
hen 4193
lecture 4193
basketball 4191
##aba 4190
luxury 4190
##rou 4189
jail 4189
nationalities 4188
cleansing 4182
##him 4181
ballistic 4180
litigation 4179
##trust 4178
airports 4178
demonstrating 4177
dozen 4177
trillion 4177
bow 4176
commanders 4176
cornerstone 4176
varies 4176
pt 4173
resistant 4173
tier 4172
##zone 4171
##gli 4169
variables 4167
cai 4166
惹 4166
皺 4164
dispatch 4163
暈 4160
灑 4159
remembered 4157
sword 4157
##nz 4155
brutal 4155
hostage 4155
rats 4155
sheikh 4155
clubs 4154
rush 4152
chicago 4151
metric 4150
sham 4150
attaining 4148
kiss 4143
皂 4143
##ont 4142
crash 4141
inmates 4141
interrogation 4141
shipments 4138
##rra 4136
seizures 4136
eminent 4135
釣 4135
compatibility 4134
aerial 4133
curve 4133
groundwater 4133
attachment 4132
煮 4131
emperor 4130
鯨 4128
absorbed 4127
colors 4127
offender 4127
enemies 4126
##itate 4125
upheld 4124
sensor 4122
鷹 4122
##nga 4120
##xia 4120
amid 4120
##och 4119
蒐 4119
##ade 4118
##lation 4118
consortium 4117
abundant 4116
suspicion 4115
kimberley 4114
earnest 4113
serbs 4113
##amine 4112
##bes 4112
##print 4112
enthusiasm 4112
geared 4112
johnson 4111
cam 4110
##lly 4108
reorganization 4108
equation 4107
secrets 4107
abandon 4106
##face 4102
##stituting 4102
jet 4102
secretaries 4101
##cend 4100
fingers 4098
##tom 4097
exciting 4097
cow 4096
estimation 4096
fence 4096
menu 4095
rests 4095
transferring 4094
篷 4092
payroll 4090
##unda 4089
horn 4089
reaches 4089
sacrifice 4089
sorrow 4089
泌 4088
辣 4088
悼 4087
匠 4086
accepts 4085
伽 4085
塘 4085
穴 4083
bob 4081
eighty 4081
##rl 4080
##sch 4080
doubled 4079
reactions 4079
whoever 4079
hedge 4078
anybody 4074
##oli 4073
##cter 4072
##ken 4072
frontier 4072
relax 4069
sami 4069
dt 4068
lodged 4068
##oll 4067
reproduction 4066
顫 4063
subordinate 4062
##ache 4061
coating 4061
stupid 4061
##md 4059
##rica 4058
climb 4056
elizabeth 4056
vibration 4056
bidding 4055
levi 4054
cum 4053
undergoing 4053
##lizer 4052
##nob 4052
daughters 4050
hamas 4050
肚 4049
##uted 4047
dawn 4047
##mel 4046
##ility 4045
vanuatu 4044
nurses 4042
vague 4041
overtime 4039
thrust 4039
##lane 4038
##ola 4038
congresses 4038
nico 4038
robbery 4038
concessions 4037
cannabis 4036
pig 4036
cake 4034
magistrates 4033
fifteen 4032
ski 4031
statutes 4031
##umb 4029
lengthy 4028
susan 4027
manufacturer 4026
santa 4026
implicit 4025
steam 4025
stuck 4025
芽 4024
##uli 4022
intentions 4022
reveals 4021
upset 4019
##llah 4017
##logy 4017
sponsorship 4017
##hum 4016
likelihood 4016
##eme 4015
##lian 4015
ratios 4015
vent 4015
喘 4015
醬 4015
dip 4013
庸 4013
鏽 4013
mba 4012
鵝 4012
involuntary 4010
##iling 4009
charity 4009
craft 4009
##nta 4008
evolve 4008
瞻 4007
##itis 4006
##vocation 4006
controversial 4006
##ath 4004
咒 4003
##wn 4000
insisted 4000
摯 4000
laying 3998
bags 3997
embedded 3997
enforcing 3996
excited 3996
jia 3995
dependency 3994
淪 3994
##pm 3991
approaching 3991
detrimental 3990
##ave 3988
bribery 3988
##uch 3986
idf 3986
physics 3986
orphans 3985
fought 3984
hotels 3984
吳 3984
鴨 3982
belgrade 3980
loading 3979
preserved 3979
asks 3978
confirms 3977
antigua 3975
hydraulic 3972
xu 3971
霸 3970
巫 3968
矯 3968
banning 3967
influences 3967
exploited 3966
info 3966
mice 3966
澱 3964
##dian 3960
conceal 3960
suggesting 3960
##gue 3958
##fying 3957
amazing 3956
##aries 3955
##under 3955
movies 3954
relied 3954
槓 3954
photographs 3953
痴 3952
passion 3951
particles 3950
stab 3950
tre 3950
##ky 3947
countryside 3947
titles 3947
恕 3947
##vina 3944
finances 3944
symbols 3944
assertion 3942
altogether 3941
situated 3941
##page 3939
insect 3939
knife 3939
lad 3939
reservoir 3939
bridges 3938
chat 3937
lips 3936
##his 3935
##iting 3935
funny 3935
minded 3935
influenza 3931
##mut 3930
depended 3930
lion 3930
literary 3929
corps 3928
imagination 3927
avenue 3924
insist 3924
栽 3924
##view 3923
scrutiny 3923
tips 3923
asa 3922
juice 3922
##nish 3921
##uld 3921
meals 3921
widening 3921
falkland 3919
巢 3919
treasure 3917
unwilling 3917
regulators 3916
tries 3916
editorial 3913
vietnam 3913
clerk 3912
tended 3912
battery 3911
asserted 3910
rebuilding 3910
measurements 3909
##ole 3908
dirty 3908
rocks 3908
##zer 3907
hero 3906
refuge 3906
triangular 3906
propaganda 3903
##aly 3901
automation 3900
pushing 3900
bankruptcy 3898
##ination 3897
terminate 3896
chemistry 3895
##una 3893
clashes 3893
utilities 3893
believing 3892
boxes 3892
lectures 3891
ads 3890
mathematics 3890
deficiency 3889
hara 3889
hay 3889
##iary 3888
sisters 3887
positioning 3886
shore 3886
differentiated 3885
誡 3885
relay 3884
##king 3883
癱 3883
咎 3882
妊 3882
analyzing 3881
merger 3881
psychology 3881
##chemical 3880
dancing 3880
rama 3880
##iable 3879
##some 3879
migratory 3879
seychelles 3879
seam 3878
##roving 3877
萎 3877
subsidy 3876
diffusion 3875
oneself 3875
##oz 3874
defects 3873
romantic 3870
迭 3870
speaks 3869
upward 3868
##uh 3867
prompted 3867
drama 3866
fool 3866
grey 3865
##erving 3864
##eta 3863
ari 3863
parks 3863
restaurants 3863
catalogue 3862
烹 3862
prospective 3861
prescription 3860
咐 3860
condemnation 3859
迦 3857
firing 3855
suited 3855
anxiety 3853
##ended 3849
stabilize 3848
ain 3843
sampling 3842
disorders 3840
##ovic 3839
croatian 3838
撕 3838
##orra 3836
摺 3835
meters 3834
##house 3831
accessed 3831
##quil 3830
hydrogen 3830
燭 3830
understands 3829
##pment 3828
##tta 3828
ibrahim 3828
afterwards 3827
damp 3827
##oit 3826
mild 3826
##ographic 3824
bang 3824
mala 3824
scaling 3824
毗 3824
exceeds 3823
passes 3823
washing 3823
##book 3822
arriving 3822
wolf 3822
##nl 3821
consuming 3821
delhi 3818
prevents 3818
sv 3817
homeland 3816
senator 3816
娠 3815
burned 3813
##cino 3812
carlos 3812
kick 3812
thai 3812
sexes 3811
wastewater 3811
affection 3810
duplicate 3810
hassan 3809
temperatures 3809
colonel 3807
calculating 3806
cattle 3805
##lence 3804
倚 3804
##ivate 3803
hd 3802
##test 3801
abducted 3801
conducts 3801
complications 3799
breakthrough 3798
wound 3798
footing 3797
retaining 3797
icao 3796
breaks 3795
directory 3793
swap 3793
moroccan 3792
##ural 3790
curt 3788
moments 3788
sooner 3788
confronting 3787
odd 3787
shoot 3787
originating 3786
ping 3786
##fish 3785
disappointed 3785
warp 3785
欖 3784
##hale 3783
##uga 3783
##sible 3782
##ws 3782
disturbing 3782
lehman 3782
var 3782
##hand 3781
嚐 3781
##lli 3779
generators 3778
crescent 3777
layout 3777
##hic 3776
colombian 3776
##iii 3773
muscle 3773
鈣 3773
illustrate 3772
gentle 3771
lighting 3771
raf 3771
jumped 3770
tennis 3770
assists 3769
barrel 3767
悖 3767
##iating 3766
##tz 3766
offs 3766
##bis 3764
dental 3764
ape 3763
##duction 3762
##oto 3762
freshwater 3761
refined 3761
cautious 3759
##rent 3758
wings 3758
榴 3758
##br 3757
apparatus 3757
commemoration 3757
arc 3756
grows 3756
pack 3756
##ior 3755
##lib 3753
##ux 3750
wholly 3750
organisms 3749
暑 3749
rebuild 3748
prone 3747
謙 3746
雀 3746
##aging 3744
bacteria 3744
ladies 3744
maturity 3744
樸 3744
##day 3743
arabs 3743
ensuing 3743
instructed 3743
##gnan 3742
franco 3742
耍 3742
shake 3740
rebels 3739
shifting 3739
##aine 3738
##gam 3738
predicted 3738
strongest 3738
fierce 3736
##lah 3735
##uis 3735
petrol 3735
undergo 3734
##bb 3731
navy 3729
brilliant 3728
keys 3727
compliant 3726
##tech 3725
##ents 3724
discourage 3724
鑿 3723
flesh 3719
memories 3719
##gui 3717
carriers 3717
##kr 3716
repeal 3716
gan 3713
##ited 3712
billions 3712
clearer 3712
歪 3712
conception 3711
nominal 3710
##vs 3709
柵 3709
ideals 3706
struggling 3705
tal 3705
classic 3704
sympathy 3704
##sf 3701
reader 3701
rockets 3700
耽 3700
perceptions 3699
##cate 3698
##ets 3697
aggravated 3697
boats 3697
churches 3697
guardian 3693
lesser 3693
expelled 3692
presiding 3692
vested 3692
circumstance 3691
eve 3691
diplomats 3690
gravel 3690
##udi 3689
monopoly 3687
incoming 3684
鄭 3683
##ched 3682
allies 3682
associates 3682
drastic 3680
rival 3680
void 3680
##iq 3679
brunei 3678
resignation 3678
induction 3676
##amp 3675
fatal 3675
francs 3673
##ography 3672
frustration 3672
endangered 3671
plug 3671
constrained 3670
溪 3670
mans 3669
travelled 3669
##hesive 3668
##quest 3668
##tiv 3668
fibre 3668
swim 3668
##kit 3666
imminent 3666
opposing 3666
##mm 3665
dragon 3664
brush 3663
folk 3661
##sma 3660
韌 3660
encompass 3659
##oint 3658
龜 3658
##bre 3657
##cated 3657
neglected 3657
enriched 3656
confinement 3655
immigrant 3655
hospitality 3654
祥 3654
utter 3653
francisco 3652
hp 3652
arena 3650
communal 3649
墳 3648
automated 3647
destiny 3647
explaining 3647
sichuan 3646
tag 3646
##lev 3644
builds 3644
spots 3644
倘 3643
listened 3642
wc 3642
rises 3640
##liness 3638
burst 3638
alliances 3637
##rk 3635
homework 3635
muhammad 3635
呂 3634
彰 3634
collaborating 3633
##rot 3632
wanna 3632
drinks 3631
鍍 3631
##ote 3630
hurry 3630
##ality 3629
晃 3629
##ava 3628
##ente 3628
defendants 3627
mathematical 3627
##dium 3626
##lay 3626
##not 3626
cheng 3626
hunting 3626
pointing 3626
waited 3626
fires 3625
瑣 3624
asleep 3623
柄 3623
##dial 3622
##illa 3622
##iro 3622
dire 3622
pearl 3622
mw 3621
turnover 3620
勉 3620
classical 3619
disciplines 3617
distortion 3617
pas 3617
##imum 3616
austrian 3615
##fort 3614
恭 3614
insight 3613
audiences 3612
initiating 3612
warfare 3612
##ignment 3611
subscription 3611
##ience 3610
##gu 3609
##ich 3608
rolled 3608
talents 3606
exhibit 3605
guilt 3605
釀 3605
abused 3604
##hd 3603
embark 3603
och 3601
##bling 3600
assassination 3600
occupy 3600
basket 3599
##iol 3598
airlines 3598
ambassadors 3598
probe 3598
##oke 3597
oppose 3597
carrie 3595
defending 3595
portable 3594
transported 3594
闖 3594
bars 3591
##gua 3590
##hes 3589
criticized 3589
threatens 3589
improper 3587
##backs 3586
probability 3586
胚 3586
rhetoric 3584
streamlined 3584
casting 3583
smug 3583
trap 3583
##leg 3582
##resh 3581
pie 3581
##vel 3580
爽 3580
##nesia 3578
soy 3578
praised 3577
unite 3577
##tus 3576
optimistic 3576
cocaine 3575
electronics 3574
sho 3574
versus 3574
##ery 3573
魁 3573
armenian 3572
濤 3570
##rak 3568
##avi 3567
blank 3567
certainty 3567
patience 3567
hee 3566
swing 3566
##emi 3565
##field 3564
complained 3562
##ays 3561
ukrainian 3561
棚 3561
淹 3560
hanging 3558
qualify 3558
##mity 3557
##zza 3556
newsletter 3556
渦 3556
drilling 3555
鋅 3554
bam 3553
tasked 3552
beneath 3551
heroin 3551
infants 3551
蔑 3551
##aco 3550
##mos 3550
翔 3550
##gas 3549
##ulf 3549
##lika 3547
hills 3546
psychiatric 3546
chiefs 3545
worrying 3545
kits 3542
shoe 3542
antonio 3541
induce 3541
fond 3540
zhu 3539
implied 3536
shaping 3535
##edging 3534
frames 3533
曬 3533
##shed 3532
瓣 3532
##cting 3531
jiang 3528
len 3528
stroke 3528
##stor 3527
embarked 3526
quoted 3526
bosnian 3523
##dre 3522
##iko 3522
glory 3520
password 3520
imperial 3519
vector 3518
anxious 3517
molecular 3517
##oft 3516
##rgy 3516
##its 3515
cater 3515
seismic 3515
writers 3515
nut 3514
trump 3514
##station 3513
attributes 3513
childbirth 3512
錐 3512
disappointment 3511
##bel 3510
廟 3510
悟 3509
flew 3506
juveniles 3506
deserved 3505
fox 3504
prima 3503
withdrew 3503
wealthy 3502
猩 3502
analyst 3500
barack 3500
overhead 3500
prediction 3500
dictionary 3499
膳 3499
ottawa 3498
pad 3498
橄 3498
authentic 3497
bike 3497
paradigm 3497
relying 3497
擲 3496
diversified 3494
##nis 3492
vegetable 3492
damaging 3491
fitting 3491
whatsoever 3491
commits 3490
vet 3490
ninety 3489
##box 3487
critics 3486
troubles 3486
栓 3485
##bol 3484
pray 3484
tracks 3484
clever 3483
forgive 3482
##ult 3481
##eter 3480
soup 3480
surgical 3480
inhibit 3479
碟 3479
albeit 3478
wool 3477
juan 3476
cooling 3475
lump 3475
##chin 3474
circles 3473
credited 3473
intimate 3473
prevalent 3473
scan 3473
##hos 3472
obe 3471
trades 3471
specification 3470
formats 3469
academics 3468
呵 3468
##fies 3467
匪 3466
##tel 3465
dozens 3464
mold 3463
##shing 3462
囑 3462
tonga 3461
trainee 3461
administrators 3460
##ogical 3459
##saka 3459
愧 3459
rf 3458
destroying 3457
promotional 3457
##vin 3455
adam 3455
advocating 3455
permitting 3454
愁 3454
鬍 3453
沾 3452
israelis 3450
knee 3450
exhaustion 3449
##ites 3447
airline 3446
toxicity 3446
茄 3446
goldman 3445
硝 3445
##ban 3444
##mac 3443
factions 3443
steep 3443
downward 3441
imprisoned 3441
瀉 3441
ale 3440
comparing 3440
tong 3440
accidental 3438
quartet 3438
scheduling 3437
cheese 3435
calculations 3434
dissolution 3434
弦 3434
conveyed 3433
supplements 3433
##hee 3431
##rce 3431
despair 3431
problematic 3429
colleague 3428
gran 3426
揹 3425
bent 3424
##ako 3423
fines 3423
冗 3423
##lized 3422
##sions 3421
emotions 3419
maori 3418
posting 3418
somehow 3418
wives 3418
adapting 3416
grenada 3416
thread 3415
constraint 3413
jury 3413
chung 3411
mohammad 3410
textile 3410
occupations 3408
seldom 3408
adi 3407
java 3407
inflicted 3406
motions 3405
relies 3404
tehran 3404
stretch 3403
緯 3403
tactics 3400
trucks 3400
compelling 3399
empirical 3398
grasp 3398
intake 3397
reversed 3397
spider 3397
surveyed 3397
##lster 3396
expose 3396
reinforcement 3396
madam 3395
磯 3394
battalion 3393
喂 3390
夷 3390
馴 3390
combustion 3389
逢 3388
priest 3387
compelled 3386
酪 3386
specifies 3385
luis 3384
##nda 3383
cheaper 3381
fraction 3379
champion 3377
fragmentation 3377
screw 3377
##mann 3376
##note 3376
adjusting 3376
atrocities 3376
afro 3375
##aka 3374
premise 3374
rotary 3374
奎 3374
defect 3372
altered 3371
enters 3371
瞞 3370
##run 3369
diploma 3369
trusted 3369
developers 3368
spur 3368
winds 3368
wooden 3367
##rch 3366
moses 3365
嘿 3363
##eu 3362
inland 3362
anymore 3361
spell 3361
##hyl 3360
##ogenic 3360
chin 3360
glasses 3358
aging 3355
dong 3355
mana 3354
velocity 3354
狠 3354
azerbaijani 3352
sacred 3351
assert 3348
advertisement 3347
hectares 3347
ideology 3347
restricting 3347
consume 3346
妒 3346
kindergarten 3344
##gist 3341
scientist 3341
婭 3341
##ndi 3340
declares 3339
resin 3339
bermuda 3338
whereabouts 3338
淆 3338
engines 3337
worn 3337
##eit 3336
tran 3334
stain 3333
triggered 3333
戚 3332
##graphs 3330
##rod 3330
##tag 3329
kb 3329
wells 3329
connecting 3327
fatigue 3325
tide 3325
吩 3325
graduated 3324
steve 3323
fog 3320
intervals 3320
abnormal 3319
heightened 3319
mega 3319
澆 3319
margins 3318
speculation 3318
confederation 3317
fracture 3317
shifts 3317
##fers 3316
##lip 3316
##now 3315
retreat 3315
鞭 3314
##ference 3313
##words 3313
amor 3313
forcing 3313
nerve 3313
yard 3313
viewpoint 3312
鈉 3312
##ocating 3311
泣 3310
optimism 3309
columbia 3308
implements 3308
neutrality 3308
ingredients 3307
automobile 3306
fir 3306
unsafe 3306
disagree 3305
pierre 3305
reminds 3305
##aire 3304
##bered 3304
xml 3304
##iy 3303
謬 3303
breeding 3300
wore 3299
##hol 3298
privilege 3298
scores 3298
horses 3297
shah 3297
futures 3296
peasants 3296
vicinity 3294
鄧 3294
hunt 3293
屢 3293
##sho 3291
圳 3290
aunt 3289
eleven 3288
winner 3288
薯 3288
catalytic 3287
ranges 3287
##vir 3286
assemblies 3286
##ray 3285
##uen 3285
dense 3285
fuzzy 3285
magazines 3285
沼 3285
geography 3284
imaging 3284
rub 3284
diesel 3282
constituencies 3281
雌 3281
dot 3280
marino 3280
adaptive 3279
accompany 3277
forbidden 3277
tailor 3277
茫 3277
evidenced 3276
sino 3276
珀 3276
microwave 3275
correctional 3274
lei 3273
##ules 3272
oslo 3271
plot 3271
蘿 3270
backward 3269
biology 3269
inspect 3269
santiago 3269
胳 3269
blocked 3268
guangdong 3268
recreation 3265
inferior 3264
medal 3264
辰 3263
##iate 3262
cave 3262
distinctive 3262
sue 3260
tt 3260
檻 3260
welding 3259
##zes 3258
reasoning 3258
deaf 3257
improves 3257
reconcile 3257
##ija 3256
yao 3256
堤 3256
蕾 3256
horizon 3255
intern 3255
og 3255
correspondent 3254
inch 3254
tome 3254
##uto 3253
dai 3252
jews 3252
shenzhen 3251
賊 3251
##falls 3250
湊 3250
咳 3248
casual 3247
duck 3247
sediment 3246
##train 3245
graph 3245
multimedia 3245
##base 3244
counts 3243
thrown 3243
beef 3242
incorrect 3242
invitations 3242
midst 3242
taylor 3242
勳 3242
brains 3241
bubble 3240
genes 3240
shy 3240
潑 3239
##graphic 3238
backgrounds 3238
regis 3238
mounted 3237
troubled 3237
##real 3236
booklet 3235
textiles 3235
乞 3235
denying 3234
wholesale 3234
tb 3233
stimulating 3232
抄 3232
粟 3232
幢 3231
穎 3231
putin 3230
barr 3229
discourse 3229
planted 3228
gel 3227
inspiration 3227
facebook 3226
hadn 3226
manpower 3225
obsolete 3225
嶺 3225
goodwill 3224
counting 3223
##ciation 3222
disposed 3222
drunk 3222
##wind 3220
##yon 3220
buenos 3220
escaped 3219
illustrates 3219
favorable 3218
editing 3217
遂 3217
##open 3216
vaccines 3216
##tern 3215
villagers 3215
addiction 3214
蝦 3214
gauge 3212
sanitary 3212
##aya 3211
拌 3210
finite 3209
forgot 3209
relieve 3209
fishery 3208
influential 3208
proximity 3208
丸 3207
fist 3206
憎 3206
thunder 3203
influencing 3202
##ises 3201
stance 3201
##lal 3200
yue 3200
spontaneous 3199
占 3199
bones 3198
徽 3198
hurricane 3197
multicultural 3197
崛 3197
bombing 3196
demolition 3195
magnet 3195
pink 3195
##cuting 3194
enclosed 3193
lets 3191
unanimous 3191
stiff 3190
嚮 3190
##ann 3189
##nal 3188
appropriated 3188
capitals 3188
harvard 3187
##mise 3186
cw 3185
stemming 3185
娶 3184
絨 3184
蝶 3184
flooding 3183
empire 3181
brigade 3178
侈 3178
##mad 3177
char 3177
屁 3176
聆 3176
broadband 3175
recreational 3175
##cted 3174
silicon 3174
芭 3174
deceased 3173
弧 3172
##gc 3171
helen 3171
critic 3170
founder 3170
performances 3169
teenage 3169
##ego 3168
beds 3168
pakistani 3168
戮 3168
扯 3168
##using 3167
poorer 3167
feared 3165
neighbourhood 3165
soap 3165
##bia 3164
##lle 3164
floating 3164
豔 3164
tiger 3163
gps 3162
藻 3162
corridor 3161
hiding 3161
desktop 3160
severity 3160
ward 3160
abdullah 3159
lean 3159
● 3159
##iculate 3158
茂 3158
counted 3157
kai 3157
drainage 3156
涕 3156
irish 3155
walks 3154
avoidance 3153
lever 3153
societal 3152
##win 3151
aires 3150
surrounded 3150
affiliation 3149
majesty 3149
seasonal 3149
pardon 3148
contempt 3147
entries 3146
memo 3145
spacecraft 3145
vie 3145
##bla 3144
##gging 3144
##anda 3143
缸 3142
##ories 3141
locate 3140
lasted 3139
yields 3139
勿 3139
bern 3136
糞 3135
pile 3134
縛 3133
robot 3131
decreases 3130
acceleration 3129
alan 3129
musical 3129
toy 3128
蓮 3128
##liga 3127
##rity 3126
cambodian 3125
impairment 3125
interpretations 3125
##nder 3124
educators 3120
lawn 3120
counterpart 3119
generator 3119
respiratory 3119
##itical 3116
louis 3116
rendering 3116
sentencing 3116
##yang 3114
agreeing 3114
settling 3113
exchanging 3112
kun 3112
vs 3112
棋 3112
##urer 3111
treatments 3110
##hot 3108
yen 3108
##rous 3107
blessed 3106
triple 3106
##grate 3105
masses 3105
搏 3105
repression 3103
##rut 3102
##att 3101
##iza 3101
abundance 3101
flex 3101
拷 3101
##rand 3098
alloy 3098
emotion 3098
ford 3098
notices 3098
##wil 3097
blast 3097
foam 3097
胰 3097
correspond 3096
packed 3096
scholarship 3095
servers 3095
trains 3094
##own 3093
俊 3092
##nds 3091
palm 3091
scotland 3091
bargaining 3090
careers 3090
devil 3090
##sai 3089
##sor 3089
##wer 3089
declaring 3089
shine 3089
nordic 3088
collateral 3087
躁 3087
轎 3087
designer 3086
莖 3085
trick 3083
armoured 3081
breathing 3081
gt 3081
諜 3081
soc 3080
##nies 3079
##ror 3079
pronounced 3079
reactor 3079
slope 3079
瘓 3079
葛 3078
##ioned 3077
##hre 3076
esteem 3076
layers 3076
maker 3076
poultry 3076
delta 3075
carr 3074
ventures 3074
##ick 3073
conceived 3073
digit 3073
nobel 3073
traveling 3073
綑 3072
##card 3071
fugitive 3070
girlfriend 3070
喇 3070
##oso 3069
telecom 3069
##hoe 3068
##cts 3066
merchandise 3066
friction 3065
persuade 3063
##iom 3061
classifications 3061
throat 3061
##nne 3060
husbands 3060
magistrate 3060
pivotal 3060
舟 3060
##bara 3058
consumed 3058
attribute 3056
prayer 3056
crying 3055
ignorance 3055
varieties 3055
questioning 3054
dump 3053
##eed 3052
mei 3052
repetition 3052
wed 3052
unreasonable 3051
altitude 3050
charitable 3049
ibm 3049
kashmir 3049
undergone 3049
licensed 3048
weakened 3048
碌 3048
accusations 3047
lethal 3046
communicating 3045
masters 3045
batch 3044
outgoing 3044
testify 3044
晴 3044
catastrophe 3043
holes 3043
褻 3043
celebrated 3042
lai 3041
registers 3041
dispose 3040
醯 3040
##wg 3039
query 3039
sour 3038
blog 3037
outward 3037
traded 3036
articulated 3035
janeiro 3035
opponents 3034
pole 3034
gin 3033
newborn 3033
##zal 3032
##ilo 3031
fig 3031
crust 3030
##ques 3029
shoulders 3029
speeches 3029
appointing 3028
nitrogen 3028
##amo 3027
expecting 3027
donation 3026
rig 3025
##dge 3024
昌 3024
##rocity 3023
cognitive 3023
kidney 3023
ambition 3022
assumes 3022
neighbors 3022
膊 3022
nest 3020
##tting 3019
eh 3019
##dah 3018
##oo 3018
acquisitions 3018
brands 3018
honoured 3017
photograph 3017
bust 3016
defamation 3016
expired 3016
toilet 3016
rainfall 3015
cigarette 3014
judged 3014
turmoil 3013
帥 3013
halo 3012
mask 3012
黛 3012
defensive 3011
妄 3011
砸 3010
yearbook 3009
##cin 3008
tumor 3008
狄 3008
drain 3007
##section 3006
subjective 3006
competitors 3005
逸 3005
##tf 3003
conditioning 3003
turks 3003
seeming 3002
hussein 3001
tony 3001
煌 3001
arid 3000
panic 3000
陋 3000
damascus 2999
encompasses 2999
噁 2999
butter 2998
hosts 2998
mart 2998
cayman 2997
departed 2996
##dt 2995
bb 2993
頌 2993
alpha 2992
bankers 2992
forcibly 2992
##yad 2991
hui 2991
zoo 2990
罌 2990
knock 2989
fraudulent 2988
singer 2988
greeting 2987
##claim 2985
bilingual 2985
flowing 2985
stephen 2985
widow 2985
咽 2985
spiral 2984
##culture 2983
loaded 2982
##ound 2981
刮 2981
陛 2981
stanley 2979
屑 2979
##jar 2978
coefficient 2977
ripe 2976
constructing 2975
##gne 2973
advising 2973
clay 2973
rope 2972
##ias 2971
edward 2970
茅 2970
卿 2968
hierarchy 2967
綢 2967
##rating 2966
##tort 2965
tribes 2965
##df 2964
##gative 2964
lobby 2963
planting 2962
prefecture 2961
ranked 2961
derive 2958
##ining 2957
victor 2956
##script 2955
mn 2955
golf 2954
##col 2953
##eld 2952
brackets 2952
豎 2952
##oid 2950
##vati 2950
##vor 2950
flee 2949
##yst 2948
bout 2948
professions 2947
detecting 2946
extensions 2946
hut 2946
##mbo 2945
dull 2945
responds 2945
coincide 2944
confused 2944
het 2944
##uit 2943
##isto 2942
crowded 2941
mars 2941
##ptive 2940
##sive 2940
apt 2940
elastic 2940
famine 2940
proves 2940
##chen 2939
##corp 2939
solvent 2939
annum 2938
aquatic 2938
nz 2938
reporter 2938
weaken 2938
pathogen 2936
refusing 2936
##ond 2935
reformed 2935
slower 2935
##alo 2934
##iest 2934
albert 2934
descriptions 2934
gentleman 2934
##rie 2932
stricken 2932
##ogen 2931
projection 2930
deviation 2929
mercy 2929
nasa 2929
##uded 2928
垮 2928
cot 2927
envelope 2927
lima 2927
modeling 2927
poetry 2927
polymer 2927
酗 2927
inspire 2926
enduring 2925
weren 2924
##ase 2923
bowl 2923
##das 2921
painted 2921
##ock 2920
sporting 2920
condemning 2918
handsome 2918
melt 2918
##asa 2917
##weight 2917
await 2917
curious 2916
lowering 2916
pill 2916
##ax 2915
##kes 2915
asbestos 2915
meteor 2915
seoul 2915
恪 2915
##wr 2914
paths 2914
serial 2914
steward 2914
upgraded 2911
##abi 2910
##cratic 2910
##ever 2908
##than 2908
shield 2907
neighbor 2906
##din 2905
##ree 2905
polling 2905
transforming 2905
explosions 2904
sarah 2903
texas 2903
塢 2902
confirming 2900
mounting 2899
汀 2899
laughter 2898
manages 2898
fake 2897
幟 2896
coca 2895
collaborated 2895
faint 2895
terrestrial 2895
huang 2894
matched 2894
##ika 2893
shear 2893
##uma 2891
passports 2891
differing 2889
logging 2888
sauce 2888
impaired 2887
inherited 2887
reside 2887
enclosure 2886
tunis 2886
##any 2885
balancing 2885
chaos 2885
examines 2885
瀆 2884
##lands 2883
bee 2883
deeds 2882
梳 2882
pity 2881
##eous 2880
##iba 2880
unstable 2880
脖 2880
dating 2879
藴 2878
grandmother 2877
clip 2875
##rna 2873
##lot 2872
ud 2872
incorporates 2871
origins 2871
slide 2871
letting 2870
stranger 2870
斟 2870
scattered 2869
plum 2867
preceded 2867
##tly 2866
oldest 2866
逍 2866
whilst 2865
vein 2864
contested 2863
侍 2863
遴 2862
##ado 2861
聾 2861
軋 2861
solitary 2860
##kali 2859
稽 2859
shifted 2858
vicious 2858
櫥 2858
##mus 2857
spray 2857
anne 2856
gonzalez 2856
痺 2856
##type 2854
replicate 2854
warnings 2854
##ocation 2853
persisted 2853
axis 2852
elders 2852
appearing 2851
dropping 2851
feeds 2851
guangzhou 2849
disputed 2848
fold 2848
gently 2848
俯 2848
garbage 2847
ambulance 2845
tense 2845
fits 2843
palais 2843
soccer 2843
wong 2843
坊 2843
##yar 2842
sunshine 2842
uv 2841
nonlinear 2839
##child 2838
##holding 2838
intrinsic 2838
##urg 2836
##zzle 2836
particle 2836
piano 2836
訣 2835
respectful 2834
snake 2833
ugly 2833
莓 2833
##atic 2832
asserts 2832
mahmoud 2832
##phone 2831
landmark 2831
monte 2830
scholar 2830
authoritative 2829
devised 2828
dominic 2828
##lio 2827
herb 2827
toys 2827
##jer 2826
joke 2826
verdict 2826
扁 2826
aesthetic 2825
humane 2825
receipts 2825
angeles 2824
spokesperson 2824
wounds 2823
蟻 2823
deliveries 2822
郡 2821
posters 2820
蛙 2820
##ders 2819
bbc 2819
fran 2818
inspected 2817
##itt 2816
convince 2814
plasma 2814
##eve 2813
literal 2812
sept 2812
##ius 2811
ioc 2811
landed 2811
wicked 2811
haste 2810
仗 2810
belgian 2809
discharged 2809
supplying 2809
##bing 2808
##ilis 2808
noteworthy 2808
accommodated 2807
foolish 2807
impressed 2807
sealed 2807
##bbe 2806
litres 2806
alexander 2805
##ght 2804
buses 2803
contacted 2803
dye 2802
虹 2802
catering 2801
searches 2800
straw 2800
technicians 2800
##hill 2799
gods 2799
nights 2799
bug 2798
瞄 2798
##law 2797
plates 2797
encompassing 2796
##vances 2795
jacket 2795
##tour 2794
boarding 2794
lame 2794
polite 2794
script 2794
torch 2794
funeral 2793
victoria 2793
lodge 2792
褐 2792
furnace 2791
interruption 2791
bachelor 2790
bedroom 2790
boo 2790
vegetation 2790
gotta 2788
scrap 2788
嫉 2788
##ometer 2787
costing 2787
eaten 2787
medication 2787
populated 2787
##cured 2785
forefront 2785
sexuality 2785
##connected 2784
conflicting 2784
##ucher 2783
displays 2783
sorts 2783
##hong 2782
tours 2782
##bate 2780
##dicated 2780
##hop 2780
##uth 2780
diminished 2780
featured 2780
grandfather 2780
righteous 2780
ghost 2779
shower 2779
dishes 2778
garage 2778
recognised 2778
virginia 2777
##rang 2776
activated 2775
aerospace 2775
morality 2775
democrats 2774
mercenary 2774
unification 2774
##factory 2773
##graphy 2773
sodium 2773
bicycle 2772
stale 2772
盔 2772
##mot 2771
decrees 2771
helena 2771
irregularities 2771
membrane 2771
naked 2771
狐 2771
##grade 2770
diameter 2770
##tone 2769
deteriorated 2769
proclamation 2769
slovak 2769
柳 2769
endure 2768
interrupted 2768
##ars 2767
##bh 2767
tak 2767
linda 2766
##omy 2765
precedence 2765
##rys 2764
pulse 2764
wales 2764
antarctic 2763
##onia 2762
##lth 2761
spirits 2760
tune 2760
##gating 2759
##taking 2759
apr 2759
sink 2759
steal 2758
尉 2758
outlets 2756
##hari 2755
bs 2755
midnight 2755
bite 2753
indices 2753
##bek 2752
poppy 2752
##eon 2751
mani 2751
oxide 2751
bt 2750
sharpe 2750
abandonment 2749
max 2749
肘 2748
##oya 2747
supervisors 2747
paulo 2746
##get 2745
conferred 2743
畸 2743
earning 2742
athens 2741
divert 2741
milan 2741
##gic 2740
backup 2740
##nge 2739
breathe 2739
supervisor 2739
vladimir 2739
fastest 2738
##nas 2737
##wei 2737
cruise 2737
stopping 2737
rodriguez 2735
butt 2734
discontinued 2734
sums 2734
##lization 2733
dispatched 2733
peasant 2733
##shu 2732
biomass 2732
influx 2731
##ots 2730
矢 2730
##nor 2729
bei 2728
rejects 2728
stadium 2728
##jack 2727
modelling 2726
coping 2725
backing 2724
rude 2724
accent 2723
unhappy 2723
##lov 2722
瀝 2720
##plicity 2719
tactical 2718
nearest 2717
superiority 2717
飇 2717
escorted 2716
rally 2716
dies 2714
laden 2714
overlapping 2714
slowed 2714
錨 2714
##ulo 2713
elite 2713
florida 2713
##chang 2712
熒 2712
delight 2711
vain 2711
鯊 2711
aluminum 2710
controversy 2710
homo 2710
sentiment 2710
algerian 2709
voiced 2709
flour 2708
于 2708
##ply 2707
boyfriend 2706
judgments 2706
冶 2706
##phon 2705
drift 2705
entirety 2704
##founded 2703
charts 2703
##vate 2702
greenland 2702
regulates 2702
commemorate 2701
styles 2701
渾 2701
deng 2700
embryo 2700
sends 2700
equilibrium 2699
paramilitary 2699
elegant 2698
rains 2698
torn 2697
##ense 2696
##neck 2696
aqua 2696
謎 2696
##tch 2695
baltic 2695
pressed 2695
##lag 2694
distributing 2694
rican 2694
梭 2694
##lom 2693
herd 2693
嗣 2693
flavor 2692
鄙 2692
##elt 2691
andrew 2690
fare 2690
indoor 2690
##nya 2689
energetic 2689
depart 2688
misunderstanding 2688
尬 2688
##gt 2687
admire 2687
廓 2687
cocoa 2686
slowing 2686
tent 2686
##evic 2684
尷 2684
##enter 2683
castle 2682
##mia 2681
帖 2681
椒 2681
##kov 2680
趟 2680
##dies 2678
deformation 2677
##urable 2676
佣 2676
collections 2675
riding 2675
moisture 2674
videos 2674
燕 2674
benjamin 2673
inscribed 2673
weaker 2673
凹 2673
essay 2672
partition 2672
streams 2672
zinc 2672
avenues 2670
gum 2670
##cure 2669
##gence 2668
dairy 2668
api 2667
##dad 2666
##till 2666
alteration 2666
easing 2666
poison 2666
shipped 2666
suits 2666
humor 2665
tale 2665
浩 2665
##ayo 2664
##riated 2664
dilemma 2664
##ount 2663
bullet 2663
manipulation 2663
饒 2663
leon 2662
nad 2662
nowhere 2662
possessed 2662
shook 2662
##pass 2661
bargain 2660
shuttle 2658
jurist 2657
withdrawing 2657
##esh 2656
convincing 2656
drives 2656
hemisphere 2656
bind 2655
fc 2655
smiling 2655
ruth 2654
arguing 2653
##uting 2651
儒 2651
differentiation 2650
honourable 2650
laptop 2650
##orn 2647
charm 2646
pub 2646
##aha 2645
marie 2645
鋸 2645
##sam 2644
##vr 2644
advertisements 2644
overnight 2644
##uel 2643
healing 2643
yielded 2643
bonus 2642
岌 2642
eternal 2640
bombings 2639
eighteen 2638
programmed 2638
睜 2638
awake 2637
belonged 2637
theo 2637
##sies 2636
baggage 2636
mum 2636
ida 2635
calcium 2634
peculiar 2634
##voking 2633
hostility 2633
invisible 2633
smiled 2633
謠 2633
##hem 2632
disagreement 2632
sarajevo 2632
glance 2631
defender 2630
retaliation 2630
ours 2629
stu 2629
骸 2629
##ulator 2628
sweat 2628
##phobic 2627
poet 2627
realm 2627
##ack 2626
##rone 2626
disappear 2626
obesity 2626
strait 2626
furnished 2625
shen 2625
leap 2624
rai 2624
recurring 2624
鈔 2624
##nin 2623
##xt 2623
lou 2623
##fare 2622
originated 2622
probation 2622
##hit 2621
protections 2621
lamb 2620
obstruction 2620
temper 2620
弓 2619
trusts 2618
gentlemen 2617
profitable 2617
architectural 2613
proving 2613
宵 2613
innocence 2611
##bet 2608
symbolic 2607
existent 2606
gall 2606
owe 2605
bother 2604
domination 2604
popularity 2604
藤 2603
bye 2602
rene 2602
risky 2602
##merie 2601
澡 2601
trail 2600
糙 2600
##uity 2598
macau 2598
mentoring 2598
width 2598
##try 2597
worlds 2597
repository 2596
##tas 2595
燙 2595
##clusive 2594
corrosion 2594
mug 2593
matches 2592
##rge 2591
batteries 2591
blade 2591
##heads 2590
grief 2590
headache 2590
museums 2590
boring 2588
贍 2588
##lou 2587
##tou 2587
##ught 2587
mosquito 2587
##rag 2586
鹹 2586
destined 2585
declines 2583
##vating 2582
identities 2582
jordanian 2582
##arian 2581
loyal 2581
惰 2581
presumed 2580
contention 2579
soo 2579
杖 2579
##jiang 2578
exhibits 2578
garcia 2578
obey 2577
ratings 2577
roller 2577
tyre 2577
reciprocal 2576
sore 2575
valentine 2575
rated 2574
performs 2573
backdrop 2572
drops 2572
recognise 2572
##frame 2571
##tur 2570
supervised 2570
comb 2569
staffed 2569
剔 2569
inherit 2568
weakening 2568
widows 2568
醋 2567
##udge 2565
dining 2565
idle 2565
converse 2563
##nated 2562
illnesses 2561
ross 2560
algiers 2558
##kka 2557
pools 2557
paste 2556
diverted 2555
##dro 2554
虜 2554
forged 2552
蛛 2552
caste 2550
clandestine 2550
depressed 2550
onset 2550
paintings 2550
ron 2550
婁 2550
##rred 2549
secrecy 2549
彬 2549
憫 2549
戳 2549
dei 2548
苔 2548
逛 2548
disturbed 2547
mall 2547
nigerian 2547
scenes 2547
stepping 2547
驢 2547
catherine 2546
##zen 2545
compiling 2545
scared 2545
鎳 2545
##nov 2544
infinite 2544
lieutenant 2544
踩 2544
echo 2542
visitor 2542
neon 2541
abc 2540
爪 2540
advisor 2538
africans 2538
dressing 2538
rewards 2538
vivid 2538
stops 2537
炬 2537
infrared 2536
specialization 2536
廂 2536
impacted 2535
mystery 2534
dali 2533
deck 2533
subtle 2533
ample 2532
endowment 2532
reckon 2531
##qing 2530
##well 2529
delicious 2529
researches 2529
trapped 2529
jacob 2527
practised 2525
shrink 2525
prepares 2524
educating 2523
mined 2523
pains 2523
colon 2522
gloom 2522
infantry 2522
refuses 2522
##ibly 2521
merchant 2521
簾 2521
chris 2519
chong 2518
defences 2518
fetch 2518
hook 2518
sells 2518
trim 2517
widen 2517
spoil 2515
translating 2514
proportions 2513
##pher 2512
situ 2512
趁 2512
##ches 2511
襪 2511
##bers 2508
patriarch 2508
nile 2507
confession 2506
cyclic 2505
possesses 2505
behave 2504
insights 2504
##abe 2503
##bution 2503
bass 2503
dried 2503
triumph 2503
commencing 2502
heights 2502
prevailed 2502
proposition 2502
##ying 2500
northeast 2500
挨 2500
##sari 2499
lang 2499
紊 2499
##ball 2498
##tv 2498
dwellers 2498
suffers 2497
unlimited 2497
##kal 2496
hash 2496
wrap 2496
assembled 2495
##vat 2494
breeze 2494
anchor 2493
yahoo 2493
##sett 2492
barcelona 2492
plaintiff 2491
abbas 2490
dirt 2490
warn 2488
##ines 2487
amman 2487
substitution 2487
絞 2487
聳 2486
##ition 2485
phrases 2485
侖 2484
##chs 2483
lens 2483
dealers 2482
##low 2481
##sei 2481
nominate 2480
investigator 2479
kings 2478
persona 2478
sensors 2478
##lusion 2477
scandal 2477
christians 2476
omar 2476
巉 2476
##right 2475
cervical 2475
##stand 2474
pine 2474
##dling 2473
dissent 2473
##jah 2472
allied 2472
powered 2472
slept 2472
##aj 2471
##itan 2471
node 2471
sunlight 2471
patch 2470
##hom 2469
##rta 2469
creatures 2469
michel 2469
##hak 2468
曝 2467
##ters 2466
##urt 2466
kay 2466
outdoor 2466
paradox 2466
patrick 2466
zhou 2466
organizers 2465
endemic 2464
ø 2464
喧 2464
coin 2463
socialism 2463
luggage 2462
monkey 2460
sizes 2460
##aq 2459
lid 2459
rings 2459
homicide 2458
##fm 2456
beta 2456
tutor 2455
epa 2454
quarrel 2454
tau 2454
##dog 2453
##wed 2453
accountants 2453
vc 2453
稜 2453
lane 2452
pitch 2452
ui 2451
##nie 2449
peers 2449
祂 2449
##lk 2448
contemplated 2448
donated 2448
relaxed 2448
sewer 2448
##fusion 2446
##iah 2446
##ein 2445
knocked 2445
muscles 2445
rim 2445
##body 2444
amazon 2444
##uy 2443
##ward 2443
##gos 2442
appetite 2442
laughing 2442
poisoning 2442
ted 2442
bog 2441
creature 2441
races 2441
##icate 2440
##nik 2440
exhibitions 2440
##bag 2439
rob 2439
##bba 2438
alt 2438
bot 2438
motives 2438
tuition 2438
炒 2438
矚 2438
clan 2437
lifelong 2437
drafts 2436
happily 2436
landfill 2436
梗 2436
delighted 2434
shit 2433
啞 2433
implant 2432
buddhist 2431
recruits 2430
vocabulary 2430
energies 2429
chop 2428
turk 2428
隘 2427
collar 2424
needle 2424
##used 2423
coke 2423
gasoline 2423
rash 2423
studio 2423
learnt 2422
metropolitan 2422
longest 2421
sail 2421
columns 2420
nah 2420
teenagers 2420
uc 2420
brick 2418
mechanics 2418
throwing 2418
##bon 2417
vietnamese 2417
authentication 2416
computation 2416
supervising 2416
##imating 2415
cartel 2415
licenses 2415
earthquakes 2414
searched 2414
##tori 2413
fellowships 2413
colored 2412
壺 2412
ata 2411
olive 2411
penitentiary 2411
##gie 2410
##hon 2410
##nte 2410
charging 2410
shots 2410
underway 2410
藐 2410
枕 2409
##aca 2408
##phy 2408
shallow 2408
##wave 2407
cinema 2407
positioned 2407
sara 2407
stir 2407
cultivated 2406
flock 2406
graves 2406
algorithms 2405
dean 2405
紳 2404
murdered 2403
彭 2403
##fast 2402
##pal 2402
francis 2402
storms 2402
燦 2402
##genic 2401
##tries 2400
##post 2399
citing 2399
ling 2399
##js 2398
cia 2398
electron 2398
mcc 2398
##ides 2396
odds 2396
##tum 2394
collision 2394
dive 2394
ada 2393
inward 2393
reversal 2393
stan 2393
斗 2393
##ell 2392
##nified 2392
##take 2392
grab 2392
reluctance 2392
豈 2391
grammar 2390
shocked 2390
##emia 2389
pulling 2389
thief 2388
##worthy 2387
blu 2387
collapsed 2387
昧 2387
quote 2386
tao 2386
aluminium 2385
booking 2385
##rized 2384
##db 2383
fixing 2382
mate 2382
neural 2382
remark 2382
bloom 2381
cameras 2381
遼 2380
genius 2379
unsuccessful 2379
internship 2378
pac 2378
recovering 2378
##ricted 2377
##sky 2377
gotten 2377
##lish 2376
impulse 2376
xinjiang 2376
mosque 2375
蕉 2375
##iso 2373
nat 2373
##nse 2372
unwanted 2372
worries 2372
##ella 2371
fen 2371
planes 2371
winners 2371
##cable 2370
outdated 2369
vale 2369
拱 2369
punt 2368
##sson 2367
crossings 2367
preschool 2367
##ndo 2364
pope 2364
ordering 2363
##old 2362
vest 2362
yun 2361
##lus 2360
ops 2360
undergraduate 2359
washed 2359
秉 2359
chase 2358
surfaces 2358
##hold 2357
appliances 2357
jackson 2357
loyalty 2357
professors 2357
switching 2357
##mers 2356
##ctric 2355
##nished 2355
keynote 2355
wanting 2355
faction 2354
handful 2353
##ats 2351
##forth 2351
lateral 2351
毅 2351
attraction 2350
needles 2350
pigs 2350
farmland 2349
overseeing 2349
registering 2349
republicans 2349
##ece 2348
##ink 2347
diagram 2347
bible 2346
depleted 2346
diaspora 2346
strife 2346
forgiven 2345
talented 2345
##gel 2344
##iers 2344
桂 2344
aide 2343
drill 2343
mysterious 2343
physicians 2343
tian 2343
toe 2343
駝 2342
postgraduate 2341
twitter 2341
##bos 2340
survived 2340
bud 2339
##osing 2338
##ough 2337
compromised 2336
hid 2336
捱 2336
corpus 2335
graphic 2335
##nel 2334
fancy 2334
compensated 2333
drying 2333
abbreviation 2332
nk 2332
ontario 2332
mighty 2331
##like 2330
finnish 2330
nazi 2330
selfish 2330
accessories 2329
stole 2329
implication 2328
oscar 2328
vt 2327
regain 2326
rushed 2326
pirates 2325
policeman 2325
豹 2325
tolerate 2324
##alla 2323
closest 2323
deepest 2323
dwell 2323
淇 2323
##pping 2322
needy 2322
additions 2321
conde 2321
secular 2321
cambridge 2320
hungarian 2320
logo 2320
carpet 2319
eric 2319
hans 2318
##ructured 2317
gallery 2317
proxy 2317
##elli 2316
electromagnetic 2316
kennedy 2316
橙 2316
煎 2315
##itor 2314
havana 2314
kilometers 2314
lays 2314
marco 2314
perceive 2314
##front 2313
grouped 2313
##rda 2312
bash 2312
functionality 2312
institut 2312
orbital 2312
##mma 2311
trunk 2311
碘 2311
iq 2310
hollywood 2309
苛 2308
冥 2307
comparisons 2306
demonstrators 2306
nba 2306
possessing 2306
##lr 2305
apples 2305
dubai 2305
wondering 2305
refining 2304
bamboo 2303
fined 2303
##ivating 2302
anonymous 2302
inclined 2302
policemen 2302
oxford 2301
climbing 2300
##nched 2299
kate 2299
lightning 2299
whistle 2299
軀 2299
bathroom 2297
gao 2297
lowered 2297
昭 2297
##ark 2296
##cede 2296
alarmed 2296
cents 2296
mara 2295
metro 2295
philippine 2295
fragmented 2293
hail 2293
##imate 2292
intersect 2292
ranged 2292
strides 2291
cables 2290
owns 2290
poem 2290
williams 2290
##hend 2289
綴 2289
oppression 2287
##oco 2286
attacking 2285
galaxy 2285
飪 2285
##ductive 2284
chancellor 2284
laughed 2284
xiang 2284
##while 2283
designers 2283
stems 2283
爍 2283
##wing 2282
prototype 2282
baha 2281
ether 2281
protesters 2281
adobe 2280
hollow 2279
mesh 2279
unused 2279
豚 2279
climatic 2276
corresponds 2275
##km 2274
##rte 2274
excitement 2274
neighborhood 2274
##isan 2273
##tute 2273
broadcasts 2273
climbed 2273
##bad 2272
##hid 2272
##chai 2270
宋 2270
##cel 2269
buck 2269
wilson 2269
烘 2269
捏 2268
##cite 2267
##gle 2267
blamed 2267
gloss 2267
musa 2267
nickel 2267
pere 2267
uniformed 2267
physician 2266
##outs 2265
awful 2265
cats 2265
opponent 2265
travellers 2265
seated 2264
阱 2264
##wall 2262
fellows 2262
##enia 2261
##ific 2261
misery 2261
cheung 2260
debated 2260
overlooked 2260
##tated 2259
caucasus 2259
transcript 2259
##umen 2255
enthusiastic 2255
gil 2255
orthodox 2255
divine 2254
loft 2254
touching 2254
tung 2254
wins 2254
##fine 2253
continents 2253
quasi 2253
unpredictable 2253
##roi 2252
nm 2252
picking 2252
ware 2252
##maker 2250
##oat 2250
organise 2250
stairs 2250
stretched 2250
姨 2250
##uven 2249
mistaken 2249
##yd 2248
mixing 2248
scott 2247
##eak 2246
##kou 2246
##physical 2246
generalized 2246
沸 2246
##amen 2245
##gled 2245
companion 2245
oils 2245
##word 2244
raped 2244
compression 2243
rack 2243
token 2243
摒 2243
##aneous 2242
##hei 2242
昔 2242
directing 2241
satisfying 2241
sinks 2241
apologize 2240
##gat 2239
wasted 2239
fai 2238
##pas 2237
##row 2237
richest 2237
##llation 2235
shaft 2235
鉀 2235
fry 2234
prey 2234
equations 2233
##atal 2232
lesbian 2232
mentor 2231
』 2231
purple 2230
villa 2230
##die 2229
launches 2229
ecology 2228
lama 2228
##kas 2226
##verance 2226
catastrophic 2226
metadata 2226
##ull 2225
誦 2225
iphone 2224
oriental 2223
auxiliary 2222
##lei 2221
caps 2221
humble 2221
bunch 2220
damn 2220
privileged 2220
disappointing 2219
blanket 2217
irrelevant 2217
嗨 2217
##vc 2216
feng 2216
nouvelle 2216
##how 2215
##ffs 2214
##plate 2214
combines 2214
dun 2213
grip 2213
siege 2213
alex 2212
gut 2212
plc 2212
unconscious 2212
levy 2211
neat 2211
organizes 2211
subway 2211
suite 2211
viewing 2211
蠅 2211
flies 2210
numbered 2210
##band 2209
actress 2209
##burg 2208
abrupt 2208
desires 2208
鎚 2208
##eem 2207
cylinder 2207
flown 2207
slim 2207
terrain 2207
candle 2206
lover 2206
slot 2206
favourite 2205
mccain 2205
繕 2205
##raj 2204
cousin 2204
dash 2204
extracted 2204
versa 2204
blocking 2203
lecturer 2203
addict 2202
defeated 2202
quantum 2202
transporting 2202
##dong 2201
blend 2201
cara 2201
lent 2201
weigh 2201
##play 2198
sydney 2198
dumb 2197
susceptible 2197
hostages 2196
finishing 2195
##gio 2194
##hala 2194
##ille 2194
burnt 2194
natal 2194
ax 2193
intel 2193
##iot 2192
##kam 2192
beck 2192
lunar 2192
##vale 2190
amy 2190
dissolved 2190
divorced 2190
dow 2190
##usion 2189
dietary 2189
faults 2189
##vani 2188
vibrant 2187
##hang 2184
behaviors 2184
哮 2184
蝴 2184
##nction 2183
滌 2183
db 2182
shade 2182
uniforms 2182
rot 2181
bernard 2180
borrowed 2180
disturbance 2180
holocaust 2180
leo 2180
swear 2180
ambitions 2179
哇 2179
##orin 2178
motive 2178
posture 2178
prc 2178
presided 2178
##dle 2177
europeans 2177
floors 2177
fuller 2177
hint 2177
剎 2177
##fulness 2176
笛 2176
laps 2175
scenery 2175
腕 2175
##oud 2174
僧 2173
unaware 2172
##lous 2171
album 2171
garment 2171
huh 2171
illustration 2171
aden 2169
baseball 2169
nuts 2169
熬 2169
##nity 2168
compassion 2168
disastrous 2168
looting 2168
##bert 2167
##inal 2166
嗓 2166
republics 2165
tribe 2165
cage 2164
cellular 2164
##riz 2163
breed 2163
revolving 2163
abusive 2162
folder 2162
##hering 2161
alice 2161
misleading 2161
competitions 2160
referenced 2160
##yne 2157
philip 2157
鈍 2157
forbid 2156
median 2156
##tension 2155
corridors 2155
domains 2155
stark 2155
commemorative 2154
destinations 2154
##ett 2153
caf 2153
cheerful 2153
honesty 2153
jing 2153
abraham 2152
adventure 2152
heal 2152
睫 2152
##more 2151
tenants 2151
##ntial 2150
revive 2150
scanning 2150
wah 2150
dug 2149
fusion 2149
hammer 2149
##imated 2148
contradictory 2148
manifested 2148
plastics 2148
##pour 2147
ignoring 2147
reuters 2147
riot 2146
##apa 2145
##ished 2145
cfa 2145
theater 2145
wax 2145
sellers 2144
sits 2144
stationed 2144
cheer 2143
instinct 2143
划 2143
dominate 2142
ist 2142
pockets 2141
queue 2141
speeds 2141
##ressed 2140
bala 2139
瞎 2139
敷 2138
##tism 2137
derivatives 2137
manuel 2136
sui 2135
blowing 2134
polls 2134
spy 2134
##room 2133
alphabet 2133
seasons 2133
charlie 2131
confessions 2131
flora 2131
straits 2131
tunisian 2131
cigarettes 2130
foul 2130
pastoral 2130
researched 2130
acoustic 2129
pluto 2129
thumb 2126
vin 2126
youths 2126
##uter 2125
jong 2125
##iously 2124
doctrines 2124
portions 2124
representations 2124
silly 2124
##hema 2123
businessmen 2123
corona 2123
railways 2123
賢 2123
cereal 2122
rainy 2122
##ago 2121
##ivo 2121
##pes 2120
catching 2120
fauna 2120
jakarta 2120
resigned 2120
spreads 2120
##uda 2119
bloody 2119
稠 2119
葱 2119
##roll 2118
beans 2118
dismiss 2118
ingredient 2118
enlarged 2117
佑 2117
##acious 2116
tun 2115
##sic 2114
generates 2114
petitions 2114
sandwich 2113
sensible 2113
靴 2113
##gens 2112
fiction 2112
gordon 2112
lotus 2112
penetration 2112
reproduce 2112
yong 2112
invented 2111
shining 2111
researcher 2110
wrapped 2110
##jia 2109
harbor 2109
崎 2109
##nded 2107
anticipation 2107
撿 2107
martinez 2106
##nen 2105
releasing 2105
bleeding 2104
cubic 2104
dalai 2104
insects 2104
variability 2104
gardens 2102
heated 2101
徐 2101
##uing 2100
bart 2099
bits 2099
interpreting 2099
venues 2099
氾 2099
##aki 2098
ego 2098
roses 2098
township 2098
pioneer 2097
狸 2097
##uated 2096
appellate 2096
fronts 2095
supper 2095
##uj 2094
poured 2094
prostitutes 2094
rabbit 2094
truce 2094
亭 2094
##ellant 2093
slogan 2093
貞 2093
blew 2092
ivan 2092
mock 2092
nik 2092
巷 2092
carl 2091
decay 2091
penetrated 2091
##agger 2090
##ill 2089
arrivals 2089
grounded 2089
lp 2089
##uce 2088
balkans 2088
blair 2088
pencil 2088
##sts 2087
judah 2087
sip 2087
##wat 2086
answering 2086
soils 2086
toast 2086
tram 2086
##bble 2085
婪 2085
##town 2084
probable 2084
interdisciplinary 2082
engages 2081
objected 2081
##lings 2080
contraction 2080
graf 2080
modifying 2080
sheer 2080
additive 2079
conversations 2079
horror 2078
overthrow 2078
shaking 2078
legislators 2077
onwards 2077
dispersed 2076
plea 2076
萃 2076
##hus 2075
##promising 2075
daddy 2075
frost 2075
heath 2075
嚼 2075
##iver 2074
##sonic 2073
absurd 2073
attendant 2073
quake 2073
墟 2073
boot 2072
smallest 2072
bottles 2071
shapes 2071
『 2071
matt 2070
##dur 2068
ek 2068
petty 2068
charming 2067
waiter 2067
##icio 2066
##jun 2066
blessing 2066
spark 2066
trustee 2066
fundraising 2065
samuel 2065
諺 2065
##holders 2064
##rip 2064
conspiracy 2063
tackled 2063
##nam 2062
fitted 2062
cock 2061
deported 2061
lazy 2061
蟹 2061
##lice 2060
diagnosed 2060
laundry 2060
##athi 2059
cache 2059
font 2059
grinding 2059
incredible 2059
lawsuit 2059
nacional 2059
capitalism 2058
竅 2058
##ection 2056
singh 2056
weighted 2056
##rgan 2055
deposition 2055
reef 2055
ventilation 2055
##tai 2054
甫 2054
##hetic 2053
sailing 2053
鑲 2053
miners 2052
shareholder 2052
writes 2052
瑜 2052
##proof 2051
foreigner 2050
thirteen 2050
negligence 2049
pilots 2049
stack 2049
吾 2049
nino 2048
appealing 2047
cholera 2047
volcanic 2047
##deh 2046
##hui 2046
##tp 2046
bronze 2046
confess 2046
stern 2046
singular 2045
characterization 2044
cooked 2044
texture 2044
靶 2044
liquor 2043
personalities 2042
sis 2042
##agi 2041
##oman 2041
assemble 2041
donald 2041
fried 2041
interval 2041
兜 2041
fame 2040
commands 2039
cough 2039
cv 2039
dwelling 2039
loses 2039
stove 2038
屯 2038
dissertation 2037
underwater 2037
wipe 2037
##nde 2036
conserve 2036
jaw 2036
multitude 2036
northwest 2036
##cup 2035
##zin 2035
courtroom 2035
gateway 2035
scaled 2035
steven 2035
vic 2035
摻 2035
beloved 2034
editors 2034
quebec 2034
repaired 2034
wheels 2034
withstand 2034
僻 2034
constituency 2033
harvesting 2033
consulate 2032
gesture 2032
冤 2032
##dam 2031
##tti 2031
sci 2031
slipped 2031
鳳 2031
capsule 2029
interchange 2029
legend 2029
agrarian 2028
classify 2028
imagery 2028
opted 2028
helm 2027
practiced 2027
拙 2027
##sche 2025
##unds 2025
candy 2025
merged 2024
miracle 2024
judging 2023
swept 2023
浙 2022
barracks 2021
este 2021
##ool 2020
##urn 2020
coa 2020
temporal 2020
##erted 2019
surviving 2019
伺 2019
##hur 2018
##torm 2018
dal 2018
landlord 2018
revenge 2018
waist 2018
##xy 2017
##lun 2015
repertoire 2015
wilder 2015
overhaul 2014
purification 2014
submarine 2014
yards 2014
唆 2014
檸 2013
followers 2012
knees 2012
##lai 2011
bids 2011
formidable 2011
lovers 2011
鴿 2011
##cker 2010
##mable 2010
patents 2010
punishments 2010
fuck 2009
romance 2009
fertile 2008
閘 2008
magnificent 2007
鬚 2007
distances 2006
##lad 2005
techno 2005
maya 2004
mentioning 2004
salman 2004
drum 2003
ladder 2003
蘆 2003
brian 2002
##bm 2001
##notes 2001
bankrupt 2001
contentious 2001
merrill 2001
tad 2000
##iu 1999
grim 1999
miguel 1999
rays 1999
##held 1998
sharif 1998
tuna 1998
temptation 1997
##ulous 1996
hits 1996
##name 1995
habitats 1995
hometown 1993
plateau 1993
##diment 1992
##non 1992
##unciation 1992
unidentified 1992
籽 1992
electrode 1991
embraced 1991
reactors 1991
怯 1991
##wt 1990
interrupt 1990
##nar 1989
##oria 1989
novels 1988
retrieval 1988
rivals 1988
##itude 1987
##wal 1987
beard 1987
doses 1987
gambling 1987
loads 1987
rr 1987
flags 1986
karen 1986
##nah 1985
##worth 1985
degraded 1985
頰 1985
##ored 1984
##sea 1984
搗 1984
tara 1983
plague 1982
嚷 1982
meditation 1981
##ecure 1980
jersey 1980
serum 1980
蔭 1980
虔 1980
##edes 1979
impoverished 1979
gaze 1978
outlying 1978
##bari 1977
##gin 1977
##tto 1977
manners 1977
niche 1977
sas 1977
stealing 1976
##bie 1975
##rdo 1975
colony 1975
##ifier 1974
##logies 1974
bearer 1973
coding 1973
flagship 1973
jeff 1973
##rove 1972
cerebral 1972
localities 1972
簧 1972
arrow 1971
elevated 1971
learners 1971
miserable 1971
##lies 1970
exile 1970
forceful 1970
sanctioned 1970
traumatic 1970
ceramic 1969
沛 1969
aboard 1968
arthur 1967
exemplary 1967
frustrated 1967
refrigerator 1967
##vid 1966
papa 1966
poster 1965
##ight 1964
fourteen 1964
##moral 1963
##osta 1963
descendants 1963
leaflets 1963
repertory 1962
tightening 1962
##cision 1961
causal 1961
peripheral 1961
芋 1961
##erative 1960
##wives 1960
lincoln 1960
mama 1960
thrive 1960
##keeping 1958
##egorical 1957
exams 1957
receiver 1957
##bala 1956
##tical 1956
precautions 1956
qin 1956
mari 1955
pedro 1955
猖 1955
秦 1955
inquired 1954
甩 1954
decoration 1953
drank 1953
hesitate 1953
##cher 1952
##uka 1952
handicapped 1952
liverpool 1952
sank 1952
憊 1952
##acion 1951
pretend 1951
rifle 1951
##ouse 1950
businessman 1950
curtain 1950
disrupted 1950
##bah 1949
marc 1949
##iman 1948
coupling 1948
詛 1948
##ander 1947
##rade 1947
revival 1947
foe 1946
gangs 1946
obligatory 1946
struggles 1946
taxpayers 1946
檬 1946
epic 1945
kata 1945
slaves 1945
嗅 1945
manila 1944
plaza 1944
ballots 1943
massage 1943
dew 1942
imperfect 1942
捧 1942
##nn 1941
aided 1941
boots 1941
dialect 1941
highways 1941
basement 1940
cite 1940
indicted 1940
compares 1939
stays 1939
als 1938
rotating 1938
##inating 1937
##movable 1937
##thermal 1937
chill 1937
hepatitis 1937
毋 1937
氰 1937
駭 1937
congressional 1936
doubtful 1936
retains 1936
skirt 1936
##ais 1935
burns 1934
hitting 1934
nr 1934
accountant 1932
fairy 1932
translators 1932
##nni 1931
杭 1931
##raz 1930
fledged 1930
launcher 1930
##rma 1929
##tock 1929
buffet 1929
censorship 1929
featuring 1928
oath 1928
viruses 1928
##uating 1926
biased 1926
relocated 1926
sixteen 1926
##hara 1925
murders 1925
kicked 1924
詮 1924
##arte 1923
flats 1923
frightened 1923
incapable 1923
patriot 1923
supermarket 1923
throne 1923
賤 1923
##born 1921
##hole 1921
##vy 1921
chronicle 1921
nexus 1921
pipes 1921
##wu 1920
羨 1920
##loading 1919
##mah 1919
arranging 1919
bloc 1919
inches 1919
resign 1919
watershed 1919
##ride 1918
labourers 1918
proteins 1918
edit 1917
goodbye 1917
marketplace 1917
potato 1917
bao 1916
gym 1916
surf 1915
掏 1915
freed 1914
##kle 1913
convoy 1913
margaret 1913
redesign 1913
takeover 1913
##uls 1912
pork 1912
rejecting 1912
activation 1911
hike 1911
replication 1911
##camp 1910
frog 1910
tolerated 1910
##itating 1909
##sser 1908
militants 1908
禿 1908
##meter 1907
##vision 1907
bodily 1907
jade 1907
chelsea 1906
salad 1906
kilograms 1905
mla 1905
zhao 1905
##mony 1904
##piece 1904
殷 1904
cardiovascular 1903
ruin 1903
##aris 1902
fantastic 1902
shirts 1902
##itated 1901
fucking 1901
bend 1899
fbi 1899
relics 1899
##encies 1898
wow 1898
liter 1897
potatoes 1897
裨 1897
civilized 1896
grandpa 1896
##cb 1895
dominance 1895
gust 1895
priests 1895
乖 1895
##hil 1894
alba 1894
chow 1894
shepherd 1894
differs 1893
##fields 1892
##lak 1892
##ulin 1892
barrels 1892
prem 1892
rang 1892
tract 1892
##rise 1891
窺 1891
##arable 1890
carp 1890
helsinki 1890
pyramid 1890
shouted 1890
##ffa 1889
chips 1889
groom 1889
shaw 1889
顱 1889
tripoli 1888
cone 1887
journals 1887
##mur 1886
breached 1886
rebellion 1886
spared 1886
##ij 1885
arabian 1885
nw 1885
##fide 1884
beast 1884
##gned 1883
fred 1883
嗽 1883
condoms 1881
fork 1881
咪 1881
fleeing 1880
jorge 1880
mast 1880
potter 1880
simulated 1880
鉗 1880
##ml 1879
corners 1879
insulation 1879
##cio 1878
bean 1878
duct 1878
glorious 1878
insists 1878
瞪 1878
骯 1878
enlist 1877
improvised 1877
wadi 1877
##pie 1876
invariably 1876
mina 1876
##atics 1875
courageous 1875
ks 1875
sacrifices 1874
sunset 1874
蜘 1874
韻 1874
liberties 1873
outpost 1873
寥 1873
朽 1873
髦 1873
##rogated 1872
repairing 1871
##force 1870
facial 1870
patrolling 1870
advises 1869
relaxation 1869
straightforward 1869
橢 1869
##tens 1868
##tos 1868
halted 1868
sticks 1868
##esa 1867
retailers 1866
##itation 1865
colorful 1865
philosophical 1865
嗜 1865
##zic 1864
rust 1864
snap 1864
hunter 1863
escort 1862
statue 1862
beau 1861
reefs 1861
walter 1861
炫 1861
##rita 1860
hatch 1860
raj 1860
brake 1858
woke 1858
bing 1857
redundant 1857
zen 1857
dick 1856
##ska 1855
synth 1855
繡 1855
surveying 1854
菊 1854
##wen 1853
inhabited 1853
orient 1853
tissues 1853
##may 1852
詭 1852
##mont 1851
alleging 1851
michelle 1851
strangers 1851
##ators 1850
commanded 1850
crafts 1850
##kon 1849
developer 1849
##year 1848
pip 1848
哎 1848
溺 1848
##bron 1847
celebrating 1847
nail 1847
nutrients 1847
primitive 1847
struggled 1847
畝 1847
##uve 1846
atm 1846
atom 1846
luc 1846
maha 1846
##iff 1845
camel 1845
darling 1845
##eca 1844
##scu 1844
jimmy 1844
nelson 1844
pumps 1844
separating 1844
condom 1843
sometime 1843
ying 1843
attorneys 1842
downtown 1842
sunny 1842
斂 1842
bands 1841
malicious 1841
spectacular 1841
恫 1841
##bial 1840
awaited 1840
discrete 1840
feast 1840
蔔 1840
bless 1839
capt 1839
jennifer 1839
mayors 1839
printers 1839
moist 1838
romanian 1838
媚 1838
serviced 1837
cabin 1836
flux 1836
travels 1836
aj 1835
qualifying 1835
supporter 1835
##ease 1834
##eer 1834
##uid 1834
refurbishment 1833
sandy 1833
terminals 1833
tomb 1833
##gible 1832
##nb 1832
##kor 1831
mergers 1831
shrinking 1831
subgroup 1831
##cis 1830
gram 1830
rick 1830
sights 1830
葵 1830
##ej 1829
thoughtful 1829
uncomfortable 1829
窒 1828
§ 1827
##iger 1826
##pis 1826
balls 1826
nak 1826
##yuan 1825
dictatorship 1825
insertion 1825
leasing 1825
rode 1825
splendid 1825
疤 1825
grains 1824
狩 1824
魏 1824
howard 1823
passionate 1823
rachel 1823
reactive 1823
youngest 1823
inaccurate 1822
##ision 1821
##tina 1821
##tl 1821
##lid 1820
madame 1820
nodes 1820
farther 1819
crowds 1818
killer 1818
weird 1818
##obe 1817
##ury 1817
dina 1817
provocative 1817
accuse 1816
substitutes 1816
kat 1815
minsk 1814
umm 1814
哩 1814
cleaned 1813
scratch 1813
advent 1812
jacques 1811
jazz 1811
jonathan 1811
junk 1811
molecules 1811
residues 1811
掀 1811
##bai 1810
##cht 1810
##pies 1810
crunch 1810
##cier 1809
##uer 1809
intact 1809
recordings 1809
骼 1809
##osis 1808
rented 1807
sachs 1807
##mics 1806
renowned 1806
渺 1806
##gia 1805
##wear 1804
noticeable 1804
##eal 1803
animation 1803
lil 1803
semester 1803
vita 1803
worsened 1803
accumulate 1801
clash 1801
classrooms 1801
dentist 1801
lamps 1801
miller 1801
endeavor 1800
backbone 1799
ronald 1799
##tility 1798
##trom 1798
cola 1798
##llary 1797
colours 1797
rebound 1797
redistribution 1797
癢 1797
##omo 1796
baker 1796
kevin 1796
antenna 1795
outright 1794
steer 1794
##personal 1793
pharmaceuticals 1793
counseling 1792
endured 1791
熄 1791
##mara 1790
curiosity 1790
happier 1790
merge 1790
rage 1790
souls 1790
趾 1790
##ater 1789
regulator 1789
灶 1789
panda 1788
technician 1788
##ake 1787
##oor 1787
horrible 1787
imagined 1787
mole 1787
tub 1787
zhejiang 1787
##ssion 1786
pants 1786
##gus 1785
ferry 1785
hurried 1785
spends 1785
artery 1784
lisbon 1784
##aan 1783
cavity 1783
heavier 1783
monuments 1783
nanjing 1782
pairs 1782
##asia 1781
cnn 1781
metabolism 1781
寞 1781
cute 1780
vr 1780
##elle 1779
cushion 1779
hari 1779
ign 1779
poems 1779
residency 1779
winding 1779
妖 1779
睞 1779
capitalist 1778
revoked 1778
##giving 1777
##rmi 1777
breadth 1777
cheat 1777
christopher 1777
灼 1777
窯 1777
##vet 1776
gong 1776
spear 1776
獗 1776
碧 1776
詆 1776
##estinal 1775
archive 1775
crush 1775
drawings 1775
抨 1775
##rga 1774
##star 1774
##tary 1773
derives 1773
flourish 1773
morals 1773
soaring 1773
錳 1773
##edo 1772
concentrating 1772
warmth 1772
##ement 1771
constituents 1771
喃 1771
regression 1770
##jin 1769
apology 1769
lust 1769
melting 1769
neighboring 1769
nov 1769
variant 1769
tighten 1768
梵 1768
##tea 1767
labels 1767
moss 1767
strains 1767
intersection 1766
rib 1766
sensation 1766
youtube 1766
##jad 1765
##ows 1765
affiliates 1765
gig 1765
儕 1765
kenyan 1764
wears 1764
##mt 1763
##cic 1762
##iance 1762
blown 1762
defended 1762
employs 1762
illusion 1762
sweeping 1762
cheek 1761
lily 1761
relentless 1761
notions 1760
remembrance 1760
traits 1760
絆 1760
##een 1759
needing 1759
鎂 1759
##weig 1758
brass 1758
simplicity 1758
##block 1757
##cious 1757
carol 1757
rhythm 1757
robinson 1757
tastes 1757
elephant 1756
sergio 1756
caucus 1755
martial 1755
##ape 1754
##gf 1754
##ones 1754
leased 1754
shortest 1754
torres 1754
differentiate 1753
tianjin 1753
哄 1753
classmates 1752
graphics 1752
趙 1752
##wise 1751
##nee 1750
celebrations 1750
proficiency 1750
sharon 1750
hardest 1749
ua 1749
撇 1749
##ailed 1748
##ange 1748
##wide 1748
unconstitutional 1748
馮 1748
maid 1747
ole 1747
topical 1747
袍 1747
##smo 1746
handicap 1746
heroes 1746
##rist 1745
mammals 1745
pak 1745
remarkably 1745
screens 1745
tablets 1745
稚 1745
##cular 1744
##dos 1744
boston 1744
squad 1744
worm 1744
xp 1744
##escence 1743
burial 1743
demons 1743
nasser 1743
unrelated 1743
purse 1742
rightful 1742
moderator 1741
tick 1741
antarctica 1740
transatlantic 1740
myth 1739
##hun 1738
##ided 1738
姚 1738
##ication 1737
##riding 1737
photography 1737
腥 1736
##hay 1734
##patient 1734
##xin 1734
cyclone 1734
champions 1733
handles 1733
laura 1733
rosa 1733
veil 1733
崙 1733
##lind 1732
##ryl 1732
##turing 1732
engagements 1732
jenny 1732
mario 1732
medals 1732
stubborn 1732
denounced 1731
devastation 1731
distorted 1730
##eda 1729
gossip 1729
jumping 1729
##oping 1728
##sher 1728
architect 1728
ceremonies 1727
joins 1727
parole 1727
膩 1727
##sphere 1726
estonian 1726
fighter 1726
prophet 1725
##wart 1724
jem 1724
planners 1724
rue 1724
bullets 1723
perez 1723
raja 1723
remarked 1723
prominence 1722
surrendered 1722
tolerant 1722
turtle 1722
informs 1721
pepper 1721
detective 1720
nick 1720
scored 1720
cites 1719
locality 1719
bulgarian 1718
solo 1718
sweep 1718
ally 1717
disturbances 1717
illegitimate 1717
nationalist 1717
reign 1717
##eim 1716
championship 1716
pond 1716
publicized 1716
dock 1715
parcel 1715
persuaded 1715
fernando 1714
afi 1712
buddha 1712
casa 1712
chef 1712
denies 1712
rifles 1712
traced 1712
translations 1712
萌 1712
##itarian 1711
acids 1711
hypothesis 1711
tempo 1711
eagle 1710
barred 1709
brethren 1709
landslide 1709
lighter 1709
limb 1709
roger 1709
##hort 1708
##nged 1708
dea 1708
cafe 1707
psychologists 1707
bypass 1706
silva 1706
casualty 1705
inactive 1705
inaugural 1705
lisa 1705
sided 1705
刃 1705
陡 1705
indo 1704
pulmonary 1704
warehouses 1704
櫻 1704
##idal 1703
##lassified 1703
catalog 1703
grassroots 1703
intrusion 1703
nationale 1703
peruvian 1703
staring 1703
surroundings 1703
翠 1703
##lee 1702
##most 1702
awarding 1702
discouraged 1702
keyboard 1702
deutsche 1701
modular 1701
promotions 1701
telescope 1701
##cam 1700
##rza 1700
fright 1700
hamid 1700
handing 1700
thor 1700
viola 1700
bombardment 1699
unofficial 1699
##holes 1698
##oting 1698
downloaded 1698
鼎 1698
offerings 1697
speculative 1697
##anne 1696
##wee 1696
easter 1696
##tile 1695
feudal 1695
guo 1695
intercourse 1695
mountainous 1695
physiological 1695
晝 1695
##rest 1694
categorized 1694
penny 1694
upstairs 1694
gabriel 1693
glow 1693
gradient 1693
hers 1693
retrieve 1693
wetlands 1693
patriotic 1692
dealer 1691
revealing 1691
dwellings 1690
priced 1690
von 1690
##iser 1689
etat 1689
evolutionary 1689
fuse 1689
hop 1689
migrate 1689
oxidation 1689
##hearted 1688
doubling 1688
perfection 1688
trainer 1688
##ford 1687
##iac 1687
ashamed 1687
politician 1687
precipitation 1687
strata 1687
##osh 1686
##quin 1686
metaphor 1686
##iae 1685
fest 1685
richer 1685
##bn 1684
ian 1684
lodging 1684
跪 1684
##yla 1683
crane 1683
perimeter 1683
##aring 1682
spoon 1682
woo 1682
##say 1681
obscure 1681
specializing 1681
unmarried 1681
##lated 1680
bolt 1680
wallet 1680
淒 1680
竣 1680
篡 1680
##yle 1679
inauguration 1679
tracked 1679
amir 1678
awkward 1678
browser 1678
containment 1678
angels 1677
practicing 1677
##anga 1676
##sty 1676
litter 1676
##onal 1675
armies 1675
lex 1675
admiration 1674
boycott 1674
upstream 1674
##ople 1673
broadcasters 1673
啥 1673
餾 1673
allotted 1672
doe 1672
instructors 1672
marius 1672
monster 1672
proprietary 1672
thanksgiving 1672
underwent 1672
yin 1672
##hma 1671
benz 1671
gus 1671
accustomed 1670
burma 1670
morale 1670
rolls 1670
##rew 1669
disturb 1669
folks 1669
ruler 1669
usable 1669
##igo 1668
##rud 1668
automotive 1668
festivals 1668
motors 1668
bonded 1667
erect 1667
prestige 1667
squeeze 1667
##bot 1666
pupil 1666
taxpayer 1666
##vie 1665
parade 1665
橘 1665
fishermen 1664
mongolian 1664
滕 1663
lining 1662
rounded 1662
teaches 1662
醛 1662
##uck 1661
manned 1661
rested 1661
cared 1660
dent 1660
commune 1659
##tized 1658
nationalism 1658
pirate 1658
shakespeare 1658
##lite 1657
##ller 1657
##sume 1657
brows 1657
hawaii 1657
malaysian 1657
mig 1657
testified 1657
yourselves 1657
interfaces 1656
journalism 1656
staple 1656
yunnan 1655
##nology 1654
extinction 1654
sounded 1654
outlet 1653
racing 1653
ark 1652
echoed 1652
heap 1652
tornado 1652
circuits 1651
emblem 1651
lemon 1651
斧 1651
螞 1651
##kk 1650
distinctions 1650
pali 1650
typhoon 1650
##lent 1649
pulp 1649
renal 1649
spelling 1649
##cian 1647
deed 1647
franklin 1647
sony 1647
##eptive 1646
hurts 1646
##tter 1645
succeeding 1645
銬 1645
inaccessible 1644
oven 1644
pumping 1644
witnessing 1644
##ducted 1643
hears 1643
£ 1643
##sight 1642
arrives 1642
culminated 1642
smiles 1642
##lating 1641
meanings 1641
##ffin 1640
##ively 1640
cobalt 1640
暇 1640
滔 1640
##static 1639
bracket 1639
insurgents 1639
lieu 1639
recycled 1639
rows 1639
cows 1637
reindeer 1637
relieved 1637
嘔 1637
##fen 1636
##acle 1635
##kim 1635
float 1635
freddie 1635
reclamation 1635
sic 1635
澀 1635
##nator 1634
chuck 1634
propagation 1634
apartments 1633
stakes 1633
downstream 1632
researching 1632
dams 1631
hm 1631
稼 1631
##typical 1630
deer 1630
暨 1630
pathways 1629
replica 1629
sofa 1629
dismay 1628
poole 1628
resurgence 1628
梨 1628
filtering 1627
slug 1627
##weed 1626
reckless 1626
trousers 1626
##lum 1625
##num 1625
amin 1625
hurst 1625
##ffe 1624
##nad 1624
ancestral 1624
diana 1624
iec 1624
sliding 1624
southwest 1624
weekends 1624
鈦 1624
##sos 1623
ankara 1623
figured 1623
##tist 1622
barn 1622
stimulation 1622
astronaut 1621
sincerity 1621
傅 1621
馨 1621
奕 1620
##ives 1619
butterfly 1619
cares 1619
pause 1619
##dant 1618
storing 1618
hormone 1617
vera 1617
撼 1617
bishop 1616
differed 1616
jungle 1616
tanker 1616
##izer 1615
##vac 1615
acquitted 1615
冉 1615
##ically 1614
駱 1614
rip 1613
stared 1613
婉 1612
chartered 1611
jen 1611
unavailable 1611
weights 1611
孢 1611
##iated 1610
##ichi 1610
poles 1610
springs 1610
potassium 1609
rainbow 1609
shadows 1609
towers 1609
##ette 1608
##hri 1608
ambiguity 1608
fisher 1608
francois 1608
mentions 1608
speeding 1608
toyota 1608
airs 1607
laurent 1607
marble 1607
眩 1607
ambiguous 1606
袒 1606
##achi 1605
##ently 1605
ledger 1605
mk 1605
salvation 1605
凋 1605
dealings 1604
raids 1604
wonders 1604
jewelry 1603
progressed 1603
stabilized 1603
##wd 1602
convoys 1602
documenting 1602
gamble 1602
geology 1602
restart 1602
ridiculous 1602
sunni 1602
瘡 1602
bucket 1601
leach 1601
lynch 1601
pee 1601
咯 1601
蹄 1601
equals 1600
pretoria 1600
upbringing 1600
weighed 1600
msc 1599
brit 1598
distinguishing 1598
lewis 1598
metre 1598
roast 1598
##bir 1597
altar 1597
clicking 1597
posing 1597
ransom 1597
##metry 1596
##wife 1596
茜 1596
boil 1595
屜 1595
afar 1594
doll 1594
inflammatory 1594
salute 1594
slaughter 1594
墾 1594
ancestors 1593
anton 1592
dysfunction 1592
graduating 1592
twist 1592
##cea 1591
##nant 1591
subscribers 1591
unarmed 1591
urine 1590
zheng 1590
chilean 1589
揀 1589
羔 1589
bending 1588
hare 1588
lasts 1588
sperm 1588
##nio 1587
##onga 1587
shrimp 1587
aka 1586
blows 1586
conquer 1586
notorious 1586
scottish 1586
呃 1586
##stone 1585
exploded 1585
porter 1585
raid 1585
exodus 1584
isolate 1584
liv 1584
pg 1584
vapor 1584
vitro 1584
槳 1584
bubbles 1583
##bang 1582
##ctors 1582
##uding 1582
coins 1582
gma 1582
provoke 1581
merry 1580
nancy 1580
蔗 1580
announcing 1579
assaults 1579
astro 1579
##gna 1578
##ige 1578
##nr 1578
unpleasant 1578
##icient 1577
##thy 1577
whichever 1577
##psy 1576
##zbek 1576
##cen 1575
##lter 1575
##mount 1575
sober 1575
##yas 1574
centered 1574
insurgency 1574
summoned 1574
wetland 1574
##kova 1573
##oki 1573
airplane 1573
enzyme 1573
##lets 1572
activist 1572
metallic 1572
##folding 1571
##ogo 1571
kissed 1571
methane 1571
sung 1571
肽 1571
fluent 1570
questionable 1570
stalled 1570
curse 1569
specialty 1569
spelled 1569
##nos 1568
duke 1568
reservoirs 1568
townships 1568
veterinary 1568
##dha 1567
delivers 1567
fide 1567
generosity 1567
mori 1567
printer 1567
geometric 1566
##chua 1565
##tures 1565
evade 1565
valves 1565
robots 1564
savage 1564
simpler 1564
姊 1564
杏 1564
dividing 1563
radios 1563
nutrient 1562
seals 1562
肋 1562
穢 1561
spat 1560
traveled 1560
儉 1560
##gina 1559
alcoholic 1559
beit 1559
battalions 1558
predecessors 1558
sworn 1558
繆 1558
薇 1558
##bola 1557
##kir 1557
hurricanes 1557
inclination 1557
jeans 1557
jr 1557
latitude 1557
##lma 1556
##trip 1556
##ues 1556
rocky 1556
拮 1556
##eck 1555
buddhism 1555
薰 1555
##zam 1554
eroded 1554
grandma 1554
攏 1554
hearted 1553
repeating 1553
窘 1553
##lling 1552
##ulously 1552
琪 1552
jason 1551
jug 1551
santos 1551
semiconductor 1551
##world 1550
gem 1550
peaks 1550
rug 1550
scanned 1550
injuring 1549
jian 1549
secession 1549
##tao 1548
whale 1548
elevator 1547
indians 1547
亥 1547
envy 1546
paved 1546
peg 1546
plots 1546
altitudes 1545
angela 1545
##ulsion 1544
漬 1544
狡 1544
##pose 1543
##sters 1543
albanians 1543
ismail 1543
##tov 1542
digging 1542
feb 1542
##iques 1541
salts 1541
疵 1541
矇 1541
##tana 1540
##pped 1539
allen 1539
continuum 1539
fei 1539
mae 1539
php 1539
footprint 1538
goo 1538
upright 1538
盎 1538
solicitor 1537
##ament 1536
##etic 1536
occupies 1536
sweater 1536
##uw 1535
##kat 1534
courtesy 1534
deepened 1534
spinning 1534
tendencies 1534
吟 1534
盞 1534
chess 1533
inhabit 1533
##lta 1532
##ngo 1532
christianity 1532
forehead 1532
intervening 1532
pioneering 1532
relocate 1532
sins 1532
弘 1532
##pur 1531
khmer 1531
setup 1530
thankful 1530
traces 1530
tubes 1530
processor 1529
reed 1529
athlete 1528
cardiac 1528
depot 1528
devotion 1528
kingston 1528
##gp 1527
ditch 1527
lgbt 1527
runner 1527
similarities 1527
颱 1527
##kari 1526
customized 1526
dat 1526
progressing 1526
budapest 1525
shandong 1525
眷 1525
absorbing 1524
detector 1524
graceful 1524
ow 1524
veterans 1524
##pg 1523
converge 1523
diffuse 1523
installing 1523
oak 1523
tricks 1523
garments 1522
internationale 1522
planets 1522
stewart 1522
summons 1522
tee 1522
tops 1522
吶 1522
##boy 1521
auditorium 1521
donkey 1521
galileo 1521
impress 1521
repealed 1521
癥 1521
##cating 1520
##wang 1520
treats 1520
episode 1519
gasp 1519
mia 1519
microscope 1519
traveller 1519
##ually 1518
##ways 1518
parenting 1518
perfume 1518
rescued 1518
牟 1518
eduardo 1517
tread 1517
##dhi 1516
姬 1516
##ney 1515
circulating 1515
senses 1515
locus 1514
ritual 1514
aaron 1513
disciples 1513
presumably 1513
recipe 1513
sleeve 1513
voyage 1513
ellen 1512
jc 1512
jealous 1512
maize 1512
nicholas 1512
pigment 1512
vocal 1512
##urance 1511
anthony 1511
bureaucracy 1511
converting 1511
hydra 1511
insult 1511
transient 1511
吼 1511
噬 1511
孵 1511
##mber 1510
##rift 1510
battlefield 1510
commentaries 1510
procession 1510
theirs 1510
eurasian 1509
omitted 1509
trajectory 1509
vase 1509
yarn 1509
balloon 1508
devastated 1508
transgender 1508
necessitated 1507
cancers 1506
##ead 1505
##ugh 1505
activate 1505
beth 1505
flaws 1505
glimpse 1505
heels 1505
indifference 1505
superficial 1505
dislike 1504
flare 1504
militant 1504
##fire 1503
chooses 1503
fulfillment 1503
triangle 1503
bacterial 1502
concealed 1502
thanking 1502
##ester 1501
neighbourhoods 1501
formulas 1500
##nous 1499
bandwidth 1499
bees 1499
elusive 1499
pavement 1499
reconciled 1499
##mbe 1498
dreamed 1498
kung 1498
sabotage 1498
cane 1497
medicinal 1497
mills 1497
pam 1497
瑕 1497
arithmetic 1496
buys 1495
convertible 1495
depths 1495
davis 1494
housed 1494
turbine 1494
凳 1494
invasive 1493
kidnapped 1493
chloride 1492
hierarchical 1492
apprehension 1491
wounding 1491
##mium 1490
coil 1490
twins 1490
cliff 1489
shark 1489
slice 1489
冕 1489
surveyor 1488
sympathetic 1488
哼 1488
墅 1488
beaches 1487
filters 1487
humiliation 1487
saddam 1487
sporadic 1487
icon 1486
lined 1486
reflections 1486
sealing 1486
瀑 1486
煥 1486
##pop 1485
##filtration 1484
greens 1484
miami 1484
purity 1484
evacuated 1483
pharaoh 1483
sketch 1483
潦 1482
##sov 1481
belarusian 1481
complaining 1481
cub 1481
gloves 1481
nucleus 1481
pets 1481
bark 1480
nautical 1480
dread 1479
simulate 1479
##away 1478
dismantled 1478
indifferent 1478
nursery 1478
蒜 1478
##lde 1477
grazing 1477
kwan 1477
sulfur 1477
胱 1477
narrowing 1476
乒 1476
##mous 1475
coated 1475
##working 1474
atoms 1474
authoritarian 1474
framed 1474
poisonous 1474
coward 1473
identifiable 1473
knit 1473
marsh 1473
yoga 1473
##cope 1472
##ried 1472
diplomat 1472
humidity 1472
##jure 1471
genome 1471
wizard 1471
卒 1471
wasting 1470
##gun 1469
larry 1469
sack 1469
##ffle 1468
##yat 1468
intermittent 1468
swallow 1468
alla 1466
bored 1466
farewell 1466
marker 1466
retrospective 1466
##dav 1465
##xing 1465
trash 1465
celestial 1464
edges 1464
goat 1464
##bey 1463
##yam 1463
anchored 1463
##rance 1462
slack 1462
ville 1462
##bio 1461
##nst 1461
##utation 1461
jiangsu 1461
##nian 1460
##vili 1460
brook 1460
##cturing 1459
clark 1459
directs 1459
mort 1459
translator 1459
癖 1459
##hia 1458
bursts 1458
spit 1458
##rable 1457
detailing 1457
leases 1457
olds 1457
principality 1457
toronto 1457
aroused 1456
pills 1456
shout 1456
stimulated 1456
##rdan 1455
kurdish 1455
sud 1455
boiling 1454
pseudo 1454
greet 1453
pathway 1453
surname 1453
##ieu 1452
banana 1452
collects 1452
electorate 1452
ignorant 1452
strings 1452
tournament 1452
喔 1452
莽 1452
##uration 1451
眨 1451
##mble 1450
bisexual 1450
honorary 1450
joints 1450
kelly 1450
峙 1450
##ahu 1449
##iful 1449
##standing 1449
bea 1449
envisioned 1449
homosexual 1449
andy 1448
hated 1448
##cca 1447
athletic 1447
regeneration 1447
蝸 1447
blacks 1446
ipod 1446
warsaw 1446
##gnant 1445
tow 1445
weighing 1445
##terol 1444
binary 1444
napoleon 1444
tenant 1444
##lace 1442
##zon 1442
architects 1441
lulu 1441
覓 1441
picnic 1440
##kic 1439
nicolas 1439
screened 1439
formations 1438
gerard 1438
grind 1438
##pse 1437
##rize 1437
dissolve 1437
inspiring 1437
futile 1436
hug 1436
recorder 1436
resentment 1436
櫚 1436
advertised 1435
frontiers 1435
tyres 1435
乓 1435
lb 1434
michigan 1434
transitions 1434
芙 1434
heroic 1433
paradise 1433
拇 1432
##tled 1431
##ysis 1431
hank 1431
lobbying 1430
蹦 1430
##gical 1429
##lift 1429
defective 1429
dragged 1429
emil 1429
menace 1429
nic 1429
textbook 1429
嬌 1429
棺 1429
謨 1429
venezuelan 1428
overlook 1427
patricia 1426
volcano 1426
capturing 1425
jihad 1425
stall 1425
bullying 1424
monica 1424
郭 1424
aziz 1423
bf 1423
mri 1423
##keeper 1422
ache 1422
publishes 1422
soda 1422
##ffer 1421
benign 1421
offspring 1421
predicting 1421
rewarded 1421
canvas 1420
predictions 1420
tamil 1420
孜 1420
authenticity 1419
eclipse 1419
karim 1419
sob 1419
wherein 1419
[...]
